{
  "version": "1.0",
  "truncation": null,
  "padding": null,
  "added_tokens": [
    {
      "id": 0,
      "content": "<|bos|>",
      "single_word": false,
      "lstrip": false,
      "rstrip": false,
      "normalized": false,
      "special": true
    },
    {
      "id": 1,
      "content": "<|eos|>",
      "single_word": false,
      "lstrip": false,
      "rstrip": false,
      "normalized": false,
      "special": true
    },
    {
      "id": 2,
      "content": "<|pad|>",
      "single_word": false,
      "lstrip": false,
      "rstrip": false,
      "normalized": false,
      "special": true
    },
    {
      "id": 3,
      "content": "<|unk|>",
      "single_word": false,
      "lstrip": false,
      "rstrip": false,
      "normalized": false,
      "special": true
    },
    {
      "id": 4,
      "content": "<|user|>",
      "single_word": false,
      "lstrip": false,
      "rstrip": false,
      "normalized": false,
      "special": true
    },
    {
      "id": 5,
      "content": "<|assistant|>",
      "single_word": false,
      "lstrip": false,
      "rstrip": false,
      "normalized": false,
      "special": true
    },
    {
      "id": 6,
      "content": "<|system|>",
      "single_word": false,
      "lstrip": false,
      "rstrip": false,
      "normalized": false,
      "special": true
    }
  ],
  "normalizer": null,
  "pre_tokenizer": {
    "type": "ByteLevel",
    "add_prefix_space": false,
    "trim_offsets": true,
    "use_regex": true
  },
  "post_processor": null,
  "decoder": {
    "type": "ByteLevel",
    "add_prefix_space": true,
    "trim_offsets": true,
    "use_regex": true
  },
  "model": {
    "type": "BPE",
    "dropout": null,
    "unk_token": "<|unk|>",
    "continuing_subword_prefix": null,
    "end_of_word_suffix": null,
    "fuse_unk": false,
    "byte_fallback": false,
    "ignore_merges": false,
    "vocab": {
      "<|bos|>": 0,
      "<|eos|>": 1,
      "<|pad|>": 2,
      "<|unk|>": 3,
      "<|user|>": 4,
      "<|assistant|>": 5,
      "<|system|>": 6,
      "!": 7,
      "\"": 8,
      "#": 9,
      "$": 10,
      "%": 11,
      "&": 12,
      "'": 13,
      "(": 14,
      ")": 15,
      "*": 16,
      "+": 17,
      ",": 18,
      "-": 19,
      ".": 20,
      "/": 21,
      "0": 22,
      "1": 23,
      "2": 24,
      "3": 25,
      "4": 26,
      "5": 27,
      "6": 28,
      "7": 29,
      "8": 30,
      "9": 31,
      ":": 32,
      ";": 33,
      "<": 34,
      "=": 35,
      ">": 36,
      "?": 37,
      "@": 38,
      "A": 39,
      "B": 40,
      "C": 41,
      "D": 42,
      "E": 43,
      "F": 44,
      "G": 45,
      "H": 46,
      "I": 47,
      "J": 48,
      "K": 49,
      "L": 50,
      "M": 51,
      "N": 52,
      "O": 53,
      "P": 54,
      "Q": 55,
      "R": 56,
      "S": 57,
      "T": 58,
      "U": 59,
      "V": 60,
      "W": 61,
      "X": 62,
      "Y": 63,
      "Z": 64,
      "[": 65,
      "\\": 66,
      "]": 67,
      "^": 68,
      "_": 69,
      "`": 70,
      "a": 71,
      "b": 72,
      "c": 73,
      "d": 74,
      "e": 75,
      "f": 76,
      "g": 77,
      "h": 78,
      "i": 79,
      "j": 80,
      "k": 81,
      "l": 82,
      "m": 83,
      "n": 84,
      "o": 85,
      "p": 86,
      "q": 87,
      "r": 88,
      "s": 89,
      "t": 90,
      "u": 91,
      "v": 92,
      "w": 93,
      "x": 94,
      "y": 95,
      "z": 96,
      "{": 97,
      "|": 98,
      "}": 99,
      "~": 100,
      "¡": 101,
      "¢": 102,
      "£": 103,
      "¤": 104,
      "¥": 105,
      "¦": 106,
      "§": 107,
      "¨": 108,
      "©": 109,
      "ª": 110,
      "«": 111,
      "¬": 112,
      "®": 113,
      "¯": 114,
      "°": 115,
      "±": 116,
      "²": 117,
      "³": 118,
      "´": 119,
      "µ": 120,
      "¶": 121,
      "·": 122,
      "¸": 123,
      "¹": 124,
      "º": 125,
      "»": 126,
      "¼": 127,
      "½": 128,
      "¾": 129,
      "¿": 130,
      "À": 131,
      "Á": 132,
      "Â": 133,
      "Ã": 134,
      "Ä": 135,
      "Å": 136,
      "Æ": 137,
      "Ç": 138,
      "È": 139,
      "É": 140,
      "Ê": 141,
      "Ë": 142,
      "Ì": 143,
      "Í": 144,
      "Î": 145,
      "Ï": 146,
      "Ð": 147,
      "Ñ": 148,
      "Ò": 149,
      "Ó": 150,
      "Ô": 151,
      "Õ": 152,
      "Ö": 153,
      "×": 154,
      "Ø": 155,
      "Ù": 156,
      "Ú": 157,
      "Û": 158,
      "Ü": 159,
      "Ý": 160,
      "Þ": 161,
      "ß": 162,
      "à": 163,
      "á": 164,
      "â": 165,
      "ã": 166,
      "ä": 167,
      "å": 168,
      "æ": 169,
      "ç": 170,
      "è": 171,
      "é": 172,
      "ê": 173,
      "ë": 174,
      "ì": 175,
      "í": 176,
      "î": 177,
      "ï": 178,
      "ð": 179,
      "ñ": 180,
      "ò": 181,
      "ó": 182,
      "ô": 183,
      "õ": 184,
      "ö": 185,
      "÷": 186,
      "ø": 187,
      "ù": 188,
      "ú": 189,
      "û": 190,
      "ü": 191,
      "ý": 192,
      "þ": 193,
      "ÿ": 194,
      "Ā": 195,
      "ā": 196,
      "Ă": 197,
      "ă": 198,
      "Ą": 199,
      "ą": 200,
      "Ć": 201,
      "ć": 202,
      "Ĉ": 203,
      "ĉ": 204,
      "Ċ": 205,
      "ċ": 206,
      "Č": 207,
      "č": 208,
      "Ď": 209,
      "ď": 210,
      "Đ": 211,
      "đ": 212,
      "Ē": 213,
      "ē": 214,
      "Ĕ": 215,
      "ĕ": 216,
      "Ė": 217,
      "ė": 218,
      "Ę": 219,
      "ę": 220,
      "Ě": 221,
      "ě": 222,
      "Ĝ": 223,
      "ĝ": 224,
      "Ğ": 225,
      "ğ": 226,
      "Ġ": 227,
      "ġ": 228,
      "Ģ": 229,
      "ģ": 230,
      "Ĥ": 231,
      "ĥ": 232,
      "Ħ": 233,
      "ħ": 234,
      "Ĩ": 235,
      "ĩ": 236,
      "Ī": 237,
      "ī": 238,
      "Ĭ": 239,
      "ĭ": 240,
      "Į": 241,
      "į": 242,
      "İ": 243,
      "ı": 244,
      "Ĳ": 245,
      "ĳ": 246,
      "Ĵ": 247,
      "ĵ": 248,
      "Ķ": 249,
      "ķ": 250,
      "ĸ": 251,
      "Ĺ": 252,
      "ĺ": 253,
      "Ļ": 254,
      "ļ": 255,
      "Ľ": 256,
      "ľ": 257,
      "Ŀ": 258,
      "ŀ": 259,
      "Ł": 260,
      "ł": 261,
      "Ń": 262,
      "Ġt": 263,
      "Ġa": 264,
      "he": 265,
      "in": 266,
      "re": 267,
      "on": 268,
      "Ġthe": 269,
      "Ġo": 270,
      "er": 271,
      "at": 272,
      "en": 273,
      "Ġc": 274,
      "an": 275,
      "ed": 276,
      "Ġs": 277,
      "it": 278,
      "es": 279,
      "Ġof": 280,
      "or": 281,
      "Ġp": 282,
      "is": 283,
      "al": 284,
      "Ġan": 285,
      "Ġin": 286,
      "ion": 287,
      "Ġf": 288,
      "Ġw": 289,
      "ar": 290,
      "ing": 291,
      "Ġb": 292,
      "Ġand": 293,
      "Ġto": 294,
      "Ġd": 295,
      "ent": 296,
      "ic": 297,
      "om": 298,
      "Ġre": 299,
      "as": 300,
      "Ġm": 301,
      "ou": 302,
      "ct": 303,
      "ĠC": 304,
      "le": 305,
      "Ġth": 306,
      "Ġ1": 307,
      "ro": 308,
      "Ġe": 309,
      "il": 310,
      "st": 311,
      "ĠT": 312,
      "Ġh": 313,
      "Ġn": 314,
      "ĠS": 315,
      "ce": 316,
      "ment": 317,
      "ĠA": 318,
      "ation": 319,
      "ur": 320,
      "ve": 321,
      "ly": 322,
      "id": 323,
      "et": 324,
      "Ġl": 325,
      "im": 326,
      "Ġfor": 327,
      "ot": 328,
      "omp": 329,
      "Ġbe": 330,
      "Ġ19": 331,
      "se": 332,
      "Ġthat": 333,
      "ol": 334,
      "ut": 335,
      "ĠI": 336,
      "Ġcon": 337,
      "ate": 338,
      "Ġis": 339,
      "ĠThe": 340,
      "Ġpro": 341,
      "Ġas": 342,
      "ch": 343,
      "Ġon": 344,
      "Ġu": 345,
      "Ġ(": 346,
      "Ġ199": 347,
      "Ġde": 348,
      "Ġst": 349,
      "ĠP": 350,
      "ers": 351,
      "ri": 352,
      "ĠM": 353,
      "ant": 354,
      "Ġsu": 355,
      "Ġg": 356,
      "pp": 357,
      "Ġor": 358,
      "qu": 359,
      "any": 360,
      "ĠD": 361,
      "ith": 362,
      "ow": 363,
      "if": 364,
      "ul": 365,
      "Ġex": 366,
      "her": 367,
      "ompany": 368,
      "00": 369,
      "ain": 370,
      "ir": 371,
      "Ġv": 372,
      "ab": 373,
      "nt": 374,
      "Ġwith": 375,
      "Ġby": 376,
      "ere": 377,
      "âĢ": 378,
      "Ġit": 379,
      "ect": 380,
      "ĠF": 381,
      "ad": 382,
      "ay": 383,
      "nd": 384,
      "end": 385,
      "ll": 386,
      "ig": 387,
      "ge": 388,
      "ĠCompany": 389,
      "est": 390,
      "ated": 391,
      "'s": 392,
      "Ġ2": 393,
      "ies": 394,
      "ver": 395,
      "res": 396,
      "Ġwas": 397,
      "Ġwh": 398,
      "ĠB": 399,
      "our": 400,
      "Ġnot": 401,
      "ĠR": 402,
      "ill": 403,
      "ity": 404,
      "ial": 405,
      "ess": 406,
      "ive": 407,
      "ist": 408,
      "art": 409,
      "Ġare": 410,
      "ud": 411,
      "am": 412,
      "Ġat": 413,
      "ĠN": 414,
      "ort": 415,
      "Ġinc": 416,
      "red": 417,
      "per": 418,
      "rom": 419,
      "os": 420,
      "Ġ3": 421,
      "ĠO": 422,
      "oc": 423,
      "ĠIn": 424,
      "Ġhe": 425,
      "Ġ$": 426,
      "ĠE": 427,
      "act": 428,
      "Ġapp": 429,
      "us": 430,
      "ld": 431,
      "Ġint": 432,
      "iv": 433,
      "Ġy": 434,
      "ec": 435,
      "Ġfrom": 436,
      "ĠW": 437,
      "and": 438,
      "em": 439,
      "ber": 440,
      "od": 441,
      "pt": 442,
      "Ġsh": 443,
      "Ġres": 444,
      "Ġr": 445,
      "ĠH": 446,
      "ich": 447,
      "ĠL": 448,
      "ff": 449,
      "ions": 450,
      "ther": 451,
      "ust": 452,
      "ac": 453,
      "ĠSt": 454,
      "Ġad": 455,
      "ip": 456,
      "um": 457,
      "Ġac": 458,
      "ments": 459,
      "ear": 460,
      "ĠJ": 461,
      "able": 462,
      "ourt": 463,
      "Ġcomp": 464,
      "uct": 465,
      "Ġwhich": 466,
      "omm": 467,
      "ount": 468,
      "ase": 469,
      "Ġcont": 470,
      "ance": 471,
      "ations": 472,
      "ĠG": 473,
      "lo": 474,
      "ard": 475,
      "gh": 476,
      "ue": 477,
      "ave": 478,
      "age": 479,
      "ary": 480,
      "ore": 481,
      "th": 482,
      "anc": 483,
      "ure": 484,
      "Ġits": 485,
      "ition": 486,
      "Ġthis": 487,
      "Ġper": 488,
      "Ġch": 489,
      "Ġal": 490,
      "ire": 491,
      "ice": 492,
      "ter": 493,
      "Ġle": 494,
      "ree": 495,
      "Ġj": 496,
      "Ġhave": 497,
      "ould": 498,
      "ew": 499,
      "el": 500,
      "Ġ\"": 501,
      "vid": 502,
      "un": 503,
      "âĢĻ": 504,
      "Ġdis": 505,
      "Ġpl": 506,
      "orm": 507,
      "are": 508,
      "Ġwe": 509,
      "iz": 510,
      "ĠDe": 511,
      "ans": 512,
      "nder": 513,
      "ap": 514,
      "Ġag": 515,
      "Ġexp": 516,
      "Ġhas": 517,
      "Ġpr": 518,
      "ost": 519,
      "ult": 520,
      "Ġse": 521,
      "Ġpart": 522,
      "Ġdef": 523,
      "ome": 524,
      "Ġass": 525,
      "erv": 526,
      "Ġfin": 527,
      "Ġtr": 528,
      "ĠU": 529,
      "000": 530,
      "lud": 531,
      "Ġother": 532,
      "ence": 533,
      "Ġsub": 534,
      "duct": 535,
      "Ġall": 536,
      "Ġyear": 537,
      "all": 538,
      "ak": 539,
      "ict": 540,
      "ens": 541,
      "ib": 542,
      "Ġcourt": 543,
      "ally": 544,
      "Ġwhe": 545,
      "Ġacc": 546,
      "ord": 547,
      "Ġunder": 548,
      "li": 549,
      "ock": 550,
      "Ġim": 551,
      "ities": 552,
      "ag": 553,
      "rou": 554,
      "Ġam": 555,
      "Ġwere": 556,
      "Ġcons": 557,
      "ates": 558,
      "Ġ4": 559,
      "erm": 560,
      "tain": 561,
      "Ġcomm": 562,
      "Ġrec": 563,
      "Ġab": 564,
      "igh": 565,
      "ased": 566,
      "mber": 567,
      "ign": 568,
      "Ġrequ": 569,
      "Ġany": 570,
      "Ġun": 571,
      "ous": 572,
      "Ġwill": 573,
      "old": 574,
      "illion": 575,
      ").": 576,
      "ark": 577,
      "Ġcl": 578,
      "low": 579,
      "ĠâĢ": 580,
      "Ġsuch": 581,
      "ee": 582,
      "Ġhis": 583,
      "ine": 584,
      "aw": 585,
      "Ġoff": 586,
      "ors": 587,
      "Ġsp": 588,
      "og": 589,
      "Ġact": 590,
      "Ġrep": 591,
      "su": 592,
      "ail": 593,
      "Ġmillion": 594,
      "Ġstate": 595,
      "Ġoper": 596,
      "ĠRe": 597,
      "Ġ31": 598,
      "Ġ5": 599,
      "ating": 600,
      "Ġpre": 601,
      "ancial": 602,
      "ility": 603,
      "ener": 604,
      "form": 605,
      "Ġinclud": 606,
      "ĠTh": 607,
      "pon": 608,
      "ater": 609,
      "au": 610,
      "Ġimp": 611,
      "so": 612,
      "Ġbeen": 613,
      "Ġhad": 614,
      "orp": 615,
      "Ġpur": 616,
      "iss": 617,
      "ings": 618,
      "ell": 619,
      "ĠDece": 620,
      "ical": 621,
      "ime": 622,
      "ĠDecember": 623,
      "ific": 624,
      "Ġind": 625,
      "Ġthere": 626,
      "--": 627,
      "Ġcan": 628,
      "Ġar": 629,
      "ual": 630,
      "ach": 631,
      "Ġqu": 632,
      "Ġ10": 633,
      "istr": 634,
      "lic": 635,
      "iff": 636,
      "ven": 637,
      "out": 638,
      "op": 639,
      "ty": 640,
      "Ġman": 641,
      "Ġprovid": 642,
      "Ġdo": 643,
      "Ġus": 644,
      "endant": 645,
      "str": 646,
      "Ġmay": 647,
      "Ġ1997": 648,
      "Ġappro": 649,
      "Ġserv": 650,
      "uring": 651,
      "Ġalso": 652,
      "ĠState": 653,
      "Ġno": 654,
      "rial": 655,
      "Ġtheir": 656,
      "Ġinv": 657,
      "Ġen": 658,
      "ef": 659,
      "Ġ1996": 660,
      "Ġdec": 661,
      "ffect": 662,
      "orpor": 663,
      "erest": 664,
      "ory": 665,
      "Ġproduct": 666,
      "Ġrel": 667,
      "ended": 668,
      "ong": 669,
      "rib": 670,
      "lect": 671,
      "mp": 672,
      "Ġne": 673,
      "ght": 674,
      "ject": 675,
      "Ġadd": 676,
      "ause": 677,
      "Ġ6": 678,
      "Ġresult": 679,
      "Ġref": 680,
      "Ġk": 681,
      "irect": 682,
      "ork": 683,
      "cc": 684,
      "Ġli": 685,
      "ax": 686,
      "hip": 687,
      "ices": 688,
      "av": 689,
      "TE": 690,
      "ners": 691,
      "ited": 692,
      "ied": 693,
      "ub": 694,
      "ĠK": 695,
      "ast": 696,
      "Ġreg": 697,
      "),": 698,
      "resent": 699,
      "Ġdefendant": 700,
      "ose": 701,
      "ted": 702,
      "ĠV": 703,
      "19": 704,
      "ets": 705,
      "Ġ1998": 706,
      "its": 707,
      "Ġsal": 708,
      "Ġout": 709,
      "Ġincre": 710,
      "Ġinterest": 711,
      "ĠAs": 712,
      "Ġone": 713,
      "ass": 714,
      "ĠInc": 715,
      "Ġwould": 716,
      ".,": 717,
      "Ġtrial": 718,
      "Ġfinancial": 719,
      "ered": 720,
      "Ġ8": 721,
      "ank": 722,
      "loy": 723,
      "ĠCon": 724,
      "oss": 725,
      "Ġtime": 726,
      "Ġest": 727,
      "âĢĿ": 728,
      "Ġmark": 729,
      "ile": 730,
      "Ġ-": 731,
      "aint": 732,
      "pect": 733,
      "Ġ7": 734,
      "ĠâĢľ": 735,
      "uc": 736,
      "Ġcost": 737,
      "over": 738,
      "ight": 739,
      "Ġob": 740,
      "Ġthese": 741,
      "ution": 742,
      "ative": 743,
      "Ġdisc": 744,
      "ertain": 745,
      "ident": 746,
      "Ġbec": 747,
      "ately": 748,
      "eal": 749,
      "Ġent": 750,
      "ia": 751,
      "reement": 752,
      "ack": 753,
      "Ġ1995": 754,
      "enc": 755,
      "Ġproper": 756,
      "ON": 757,
      "ang": 758,
      "mploy": 759,
      "ized": 760,
      "ry": 761,
      "Ġval": 762,
      "Ġme": 763,
      "ollow": 764,
      "Ġpay": 765,
      "Ġso": 766,
      "Ġyears": 767,
      "Ġover": 768,
      "ĠCourt": 769,
      "ade": 770,
      "Ġte": 771,
      "Ġbut": 772,
      "ital": 773,
      "Ġyou": 774,
      "ĠComm": 775,
      "Ġgener": 776,
      "Ġour": 777,
      "ide": 778,
      "ĠNo": 779,
      "Ġthan": 780,
      "ild": 781,
      "Ġlo": 782,
      "ired": 783,
      "ress": 784,
      "fter": 785,
      "hed": 786,
      "Ġamount": 787,
      "ection": 788,
      "Ġfollow": 789,
      "Ġcas": 790,
      "Ġstock": 791,
      "one": 792,
      "Ġthey": 793,
      "ra": 794,
      "Ġequ": 795,
      "ĠEx": 796,
      "ĠCh": 797,
      "ame": 798,
      "Ġmore": 799,
      "Ġtest": 800,
      "erson": 801,
      "ise": 802,
      "ern": 803,
      "Ġsupp": 804,
      "ĠIt": 805,
      "ract": 806,
      "lop": 807,
      "ĠWe": 808,
      "etw": 809,
      "ange": 810,
      "Ġow": 811,
      "yst": 812,
      "rough": 813,
      "Ġif": 814,
      "isc": 815,
      "ĠThis": 816,
      "der": 817,
      "Ġconc": 818,
      "Ġcase": 819,
      "iness": 820,
      "Ġ9": 821,
      "velop": 822,
      "Ġevid": 823,
      "ision": 824,
      "right": 825,
      "Ġsec": 826,
      "ense": 827,
      "Ġfact": 828,
      "Ġatt": 829,
      "Ġdet": 830,
      "ious": 831,
      "ents": 832,
      "ĠUn": 833,
      "ption": 834,
      "ĠPart": 835,
      "Ġrem": 836,
      "ru": 837,
      "Ġeffect": 838,
      "rant": 839,
      "air": 840,
      "Ġterm": 841,
      "pos": 842,
      "ace": 843,
      "inc": 844,
      "Ġinto": 845,
      "ne": 846,
      "aim": 847,
      "AN": 848,
      "Ġtax": 849,
      "Ġcap": 850,
      "ily": 851,
      "ystem": 852,
      "xim": 853,
      "Ġtw": 854,
      "usiness": 855,
      "Ġemploy": 856,
      "nership": 857,
      "Ġjud": 858,
      "Ġthrough": 859,
      "Ġlaw": 860,
      "Ġwhen": 861,
      "aid": 862,
      "Ġ20": 863,
      "ood": 864,
      "Ġevidence": 865,
      "ake": 866,
      "row": 867,
      "ĠÂ": 868,
      "Ġtrans": 869,
      "ok": 870,
      "irst": 871,
      "Ġwho": 872,
      "nce": 873,
      "oin": 874,
      "fore": 875,
      "ason": 876,
      "Ġmarket": 877,
      "gr": 878,
      "Ġcertain": 879,
      "ound": 880,
      "Ġnew": 881,
      "Ġaddition": 882,
      "urre": 883,
      "arg": 884,
      "Ġright": 885,
      "Ġfil": 886,
      "een": 887,
      "les": 888,
      "ified": 889,
      "Ġrespect": 890,
      "IN": 891,
      "ury": 892,
      "Ġ.": 893,
      "stit": 894,
      "Ġdevelop": 895,
      "Ġapproxim": 896,
      "ond": 897,
      "rit": 898,
      "iod": 899,
      "ER": 900,
      "Ġclaim": 901,
      "ĠPro": 902,
      "agement": 903,
      "erc": 904,
      "ares": 905,
      "Ġdes": 906,
      "Ġperson": 907,
      "ible": 908,
      "Ġspec": 909,
      "Ġdirect": 910,
      "ved": 911,
      "Ġaccount": 912,
      "Ġ1999": 913,
      "Ġbusiness": 914,
      "Ġincome": 915,
      "formation": 916,
      "Ġrece": 917,
      "Ġduring": 918,
      "ĠAn": 919,
      "Ġher": 920,
      "Ġsign": 921,
      "und": 922,
      "Ġperiod": 923,
      "ish": 924,
      "own": 925,
      "Ġcould": 926,
      "Ġstat": 927,
      "ures": 928,
      "ĠY": 929,
      "Ġstatements": 930,
      "ute": 931,
      "Ġmade": 932,
      "Ġ198": 933,
      "Ġsc": 934,
      "Ġeach": 935,
      "Ġtwo": 936,
      "ie": 937,
      "Ġapproximately": 938,
      "etween": 939,
      "EN": 940,
      "Ġacqu": 941,
      "sel": 942,
      "Ġrev": 943,
      "Ġaut": 944,
      ".\"": 945,
      "Ġproducts": 946,
      "Ġ1994": 947,
      "10": 948,
      "Ġended": 949,
      "Ġinvest": 950,
      "erred": 951,
      "Ġwork": 952,
      "Ġbetween": 953,
      "aintiff": 954,
      "cess": 955,
      "arch": 956,
      "Ġonly": 957,
      "Ġcust": 958,
      "ĠAm": 959,
      "Ġmot": 960,
      "ner": 961,
      "Ġoperations": 962,
      "Ġpresent": 963,
      "Ġsystem": 964,
      "iew": 965,
      "olog": 966,
      "ues": 967,
      "struct": 968,
      "ational": 969,
      "Ġuse": 970,
      "olid": 971,
      "Ġpri": 972,
      "ffic": 973,
      "Ġpurch": 974,
      "Ġissu": 975,
      "ees": 976,
      "ĠAg": 977,
      "Ġform": 978,
      "Ġbecause": 979,
      "Ġshares": 980,
      "Ġsales": 981,
      "Ġdeterm": 982,
      "Ġupon": 983,
      "Ġdid": 984,
      "Ġreason": 985,
      "Ġvalue": 986,
      "Ġafter": 987,
      "erence": 988,
      "Ġ*": 989,
      "ys": 990,
      "ite": 991,
      "ever": 992,
      "ceed": 993,
      "Ġreport": 994,
      "ove": 995,
      "ĠApp": 996,
      "Ġrecord": 997,
      "aterial": 998,
      "Ġcontract": 999,
      "Ġpol": 1000,
      "Ġrequire": 1001,
      "port": 1002,
      "Ġdist": 1003,
      "Ġop": 1004,
      "Ġnet": 1005,
      "ission": 1006,
      "ke": 1007,
      "ĠPl": 1008,
      "Ġ12": 1009,
      "Ġ30": 1010,
      "Ġinformation": 1011,
      "Ġused": 1012,
      "ability": 1013,
      "Ġdiff": 1014,
      "ined": 1015,
      "Ġcommon": 1016,
      "the": 1017,
      "Ġfirst": 1018,
      "AL": 1019,
      "Ġmat": 1020,
      "urance": 1021,
      "arn": 1022,
      "Ġabout": 1023,
      "ĠStock": 1024,
      "ilities": 1025,
      "Ġhere": 1026,
      "orporation": 1027,
      "urrent": 1028,
      "Ġins": 1029,
      "led": 1030,
      "Ġagain": 1031,
      "ays": 1032,
      "Ġconsid": 1033,
      "ublic": 1034,
      "oard": 1035,
      "Ġmaterial": 1036,
      "Ġbas": 1037,
      "Ġcosts": 1038,
      "ively": 1039,
      "cept": 1040,
      "Ġcash": 1041,
      "Ġshare": 1042,
      "enef": 1043,
      "mit": 1044,
      "oth": 1045,
      "ĠAt": 1046,
      "urn": 1047,
      "gment": 1048,
      "Ġfiled": 1049,
      "ient": 1050,
      "ower": 1051,
      "Ġservices": 1052,
      "Ġshe": 1053,
      "ĠAl": 1054,
      "Ġassets": 1055,
      "gin": 1056,
      "Ġlim": 1057,
      "iscal": 1058,
      "ft": 1059,
      "Ġret": 1060,
      "ĠFin": 1061,
      "Ġcustom": 1062,
      "Ġkn": 1063,
      "Ġbased": 1064,
      "ĠSu": 1065,
      "ND": 1066,
      "Ġ[": 1067,
      "Ġfac": 1068,
      "Ġset": 1069,
      "Ġplaintiff": 1070,
      "hib": 1071,
      "Ġproperty": 1072,
      "Ġup": 1073,
      "TI": 1074,
      "Ġdue": 1075,
      "Ġcar": 1076,
      "ward": 1077,
      "ivid": 1078,
      "Ġincluding": 1079,
      "ex": 1080,
      "Ġown": 1081,
      "Ġrespon": 1082,
      "eb": 1083,
      "AR": 1084,
      "Ġshould": 1085,
      "ont": 1086,
      "reat": 1087,
      "redit": 1088,
      "incip": 1089,
      "irc": 1090,
      "hold": 1091,
      "Ġdoes": 1092,
      "Ġext": 1093,
      "Ġloc": 1094,
      "OR": 1095,
      "ĠOn": 1096,
      "ert": 1097,
      "Ġorder": 1098,
      "Ġ200": 1099,
      "ian": 1100,
      "Ġfollowing": 1101,
      "Ġro": 1102,
      "olidated": 1103,
      "owever": 1104,
      "ful": 1105,
      "Ġthem": 1106,
      "Ġcol": 1107,
      "ATE": 1108,
      "Ġloss": 1109,
      "Ġgrant": 1110,
      "oint": 1111,
      "ough": 1112,
      "ule": 1113,
      "ants": 1114,
      "Ġcontin": 1115,
      "Ġyour": 1116,
      "Ġbeli": 1117,
      "Ġcapital": 1118,
      "chn": 1119,
      "Ġmon": 1120,
      "ret": 1121,
      "ES": 1122,
      "Ġleg": 1123,
      "ness": 1124,
      "Ġrequired": 1125,
      "ages": 1126,
      "ribut": 1127,
      "Ġwhere": 1128,
      "Ġnum": 1129,
      "ĠMr": 1130,
      "Ġapplic": 1131,
      "Ġph": 1132,
      "ĠTr": 1133,
      "Ġsupport": 1134,
      "ĠReg": 1135,
      "Ġsome": 1136,
      "sid": 1137,
      "Ġregul": 1138,
      "Ġfiscal": 1139,
      "enses": 1140,
      "Ġbenef": 1141,
      "oci": 1142,
      "Ġwell": 1143,
      "stand": 1144,
      "Ġev": 1145,
      "ĠPartnership": 1146,
      "ix": 1147,
      "oun": 1148,
      "hor": 1149,
      "Ġstr": 1150,
      "pr": 1151,
      "urities": 1152,
      "ĠÂ§": 1153,
      "ember": 1154,
      "lig": 1155,
      "Ġappeal": 1156,
      "ination": 1157,
      "Ġsubject": 1158,
      "ĠSe": 1159,
      "Ġcond": 1160,
      "Ġprincip": 1161,
      "Ġthose": 1162,
      "Ġwhether": 1163,
      "ances": 1164,
      "Ġ13": 1165,
      "Ġagainst": 1166,
      "Ġdep": 1167,
      "Ġprim": 1168,
      "Ġrelated": 1169,
      "Ġrate": 1170,
      "ĠAgreement": 1171,
      "Ġmin": 1172,
      "Ġreceiv": 1173,
      "arily": 1174,
      "Ġcurrent": 1175,
      "Ġmust": 1176,
      "Ġfind": 1177,
      "istrict": 1178,
      "Ġvar": 1179,
      "ep": 1180,
      "itions": 1181,
      "ĠNot": 1182,
      "Ġmet": 1183,
      "ĠSee": 1184,
      "Ġagreement": 1185,
      "Ġbelie": 1186,
      "Ġaff": 1187,
      "ĠInt": 1188,
      "20": 1189,
      "Ġreven": 1190,
      "Ġav": 1191,
      "Ġmanagement": 1192,
      "Ġchild": 1193,
      "----": 1194,
      "ife": 1195,
      "TS": 1196,
      "Ġ15": 1197,
      "tal": 1198,
      "ves": 1199,
      "Ġbefore": 1200,
      "ases": 1201,
      "duc": 1202,
      "ĠForm": 1203,
      "une": 1204,
      "Ġhold": 1205,
      "ric": 1206,
      "Ġarg": 1207,
      "ptions": 1208,
      "ially": 1209,
      "ĠBank": 1210,
      "ince": 1211,
      "arge": 1212,
      "Ġthree": 1213,
      "Ġhim": 1214,
      "son": 1215,
      "eral": 1216,
      "ĠAND": 1217,
      "Ġnon": 1218,
      "fact": 1219,
      "ĠAct": 1220,
      "ĠCo": 1221,
      "stant": 1222,
      "icip": 1223,
      "lement": 1224,
      "anu": 1225,
      "Ġoperating": 1226,
      "ared": 1227,
      "Ġincrease": 1228,
      "uture": 1229,
      "Ġcount": 1230,
      "ĠInd": 1231,
      "io": 1232,
      "Ġprov": 1233,
      "eop": 1234,
      "__": 1235,
      "Ġdate": 1236,
      "Ġproceed": 1237,
      "Ġ1993": 1238,
      "Ġneed": 1239,
      "ior": 1240,
      "Ġ11": 1241,
      "sidi": 1242,
      "Ġpublic": 1243,
      "ificant": 1244,
      "Ġstand": 1245,
      "ros": 1246,
      "err": 1247,
      "ĠThere": 1248,
      "Ġtotal": 1249,
      "Ġreference": 1250,
      "Ġprocess": 1251,
      "Ġgu": 1252,
      "orporated": 1253,
      "gram": 1254,
      "te": 1255,
      "Ġjury": 1256,
      "ĠAr": 1257,
      "etition": 1258,
      "Ġcr": 1259,
      "Ġ(\"": 1260,
      "Ġauthor": 1261,
      "ony": 1262,
      "Ġoffic": 1263,
      "Ġfail": 1264,
      "ĠOF": 1265,
      "Ġthen": 1266,
      "abl": 1267,
      "ends": 1268,
      "Ġshall": 1269,
      "inion": 1270,
      "Ġbasis": 1271,
      "ĠHe": 1272,
      "Ġfound": 1273,
      "Ġinter": 1274,
      "ecut": 1275,
      "Ġallow": 1276,
      "50": 1277,
      "Ġsee": 1278,
      "gan": 1279,
      "Ġheld": 1280,
      "Ġfuture": 1281,
      "ces": 1282,
      "Ġjudgment": 1283,
      "ĠAcc": 1284,
      "round": 1285,
      "ath": 1286,
      "isk": 1287,
      "Ġquest": 1288,
      "Ġsame": 1289,
      "Ġtechn": 1290,
      "ĠMarch": 1291,
      "cent": 1292,
      "Ġincreased": 1293,
      "ĠUnited": 1294,
      "leg": 1295,
      "man": 1296,
      "Ġplan": 1297,
      "Ġcomple": 1298,
      "Ġco": 1299,
      "ellant": 1300,
      "bt": 1301,
      "ren": 1302,
      "Ġprior": 1303,
      "Ġocc": 1304,
      "ular": 1305,
      "11": 1306,
      "ĠSec": 1307,
      "Ġlong": 1308,
      "ĠFinancial": 1309,
      "Ġprev": 1310,
      "Ġwithin": 1311,
      "ĠJune": 1312,
      "ature": 1313,
      "Ġ&": 1314,
      "Ġsignificant": 1315,
      "stitution": 1316,
      "standing": 1317,
      "Ġboth": 1318,
      "Ġaction": 1319,
      "ĠCorporation": 1320,
      "Ġresults": 1321,
      "sue": 1322,
      "ĠFor": 1323,
      "anuary": 1324,
      "Ġcirc": 1325,
      "Ġinf": 1326,
      "Ġestim": 1327,
      "CI": 1328,
      "overn": 1329,
      "arm": 1330,
      "eople": 1331,
      "vel": 1332,
      "ĠJanuary": 1333,
      "Ġ18": 1334,
      "hen": 1335,
      "Ġmost": 1336,
      "arter": 1337,
      "ind": 1338,
      "ĠBoard": 1339,
      "amp": 1340,
      "ization": 1341,
      "ced": 1342,
      "Ġprob": 1343,
      "Ġhigh": 1344,
      "Ġmotion": 1345,
      "Ġelect": 1346,
      "12": 1347,
      "Ġprovide": 1348,
      "Ġcredit": 1349,
      "Ġstud": 1350,
      "Ġfund": 1351,
      "Ġservice": 1352,
      "Ġnumber": 1353,
      "Ġmake": 1354,
      "min": 1355,
      "ober": 1356,
      "Ġwithout": 1357,
      "ional": 1358,
      "Ġadditional": 1359,
      "ĠAd": 1360,
      "Ġsim": 1361,
      "MEN": 1362,
      "Ġdevelopment": 1363,
      "Ġrepresent": 1364,
      "yp": 1365,
      "aj": 1366,
      "urther": 1367,
      "Ġconv": 1368,
      "ĠCommon": 1369,
      "Ġcontro": 1370,
      "irm": 1371,
      "ines": 1372,
      "hibit": 1373,
      "aring": 1374,
      "nual": 1375,
      "Ġbu": 1376,
      "ished": 1377,
      "con": 1378,
      "ederal": 1379,
      "Ġsubsidi": 1380,
      "ering": 1381,
      "Ġestabl": 1382,
      "Ġfair": 1383,
      "Ġavail": 1384,
      "Ġperform": 1385,
      "orne": 1386,
      "Ġactiv": 1387,
      "less": 1388,
      "Ġver": 1389,
      ".âĢĿ": 1390,
      "itt": 1391,
      "Ġ14": 1392,
      "ata": 1393,
      "Ġprice": 1394,
      "ĠThese": 1395,
      "roup": 1396,
      "ĠRegistr": 1397,
      "Ġreal": 1398,
      "Ġdated": 1399,
      "Ġexist": 1400,
      "Ġexper": 1401,
      "Ġexpenses": 1402,
      "ued": 1403,
      "ob": 1404,
      "Ġfe": 1405,
      "Ġbeing": 1406,
      "ĠStates": 1407,
      "Ġwhat": 1408,
      "ross": 1409,
      "Ġpurchase": 1410,
      "AS": 1411,
      "Ġrisk": 1412,
      "ĠDirect": 1413,
      "Ġpercent": 1414,
      "Ġmonth": 1415,
      "iction": 1416,
      "Ġopinion": 1417,
      "Ġprogram": 1418,
      "lus": 1419,
      "uly": 1420,
      "rap": 1421,
      "Ġrespectively": 1422,
      "Ġless": 1423,
      "Ġreview": 1424,
      "Ġpos": 1425,
      "ecess": 1426,
      "IS": 1427,
      "Ġgeneral": 1428,
      "ogn": 1429,
      "ĠRes": 1430,
      "ify": 1431,
      "Ġwrit": 1432,
      "Ġissue": 1433,
      "ĠGener": 1434,
      "Ġport": 1435,
      "Ġmanu": 1436,
      "ĠSh": 1437,
      "ĠWh": 1438,
      "ED": 1439,
      "Ġbank": 1440,
      "resident": 1441,
      "Ġprovided": 1442,
      "ĠSo": 1443,
      "ug": 1444,
      "Ġmanufact": 1445,
      "ensation": 1446,
      "Ġpat": 1447,
      "ĠNew": 1448,
      "\")": 1449,
      "ick": 1450,
      "Ġadv": 1451,
      "ĠSept": 1452,
      "suant": 1453,
      "ĠPlan": 1454,
      "ology": 1455,
      "ajor": 1456,
      "mitted": 1457,
      "Ġmod": 1458,
      "Ġaud": 1459,
      "Ġinclude": 1460,
      "Ġfore": 1461,
      "13": 1462,
      "ool": 1463,
      "ten": 1464,
      "ĠSeptember": 1465,
      "Ġca": 1466,
      "ĠMan": 1467,
      "ency": 1468,
      "Ġconf": 1469,
      "Ġmain": 1470,
      "ving": 1471,
      "Ġremain": 1472,
      "uss": 1473,
      "ather": 1474,
      "ird": 1475,
      "Ġprimarily": 1476,
      "Ġful": 1477,
      "Ġsent": 1478,
      "ĠST": 1479,
      "ĠAss": 1480,
      "ĠCl": 1481,
      "Ġinvol": 1482,
      "isions": 1483,
      "struction": 1484,
      "ipment": 1485,
      "Ġlike": 1486,
      "ties": 1487,
      "Ġmed": 1488,
      "Ġposs": 1489,
      "ics": 1490,
      "TION": 1491,
      "ĠIf": 1492,
      "Ġexpect": 1493,
      "Ġcom": 1494,
      "Ġgenerally": 1495,
      "atory": 1496,
      "Ġpolic": 1497,
      "Ġincluded": 1498,
      "Ġdiffere": 1499,
      "eric": 1500,
      "Ġprovides": 1501,
      "ounsel": 1502,
      "Ġcompany": 1503,
      "Ġsale": 1504,
      "aries": 1505,
      "Ġbr": 1506,
      "Ġden": 1507,
      "Ġmajor": 1508,
      "alth": 1509,
      "ph": 1510,
      "Ġsur": 1511,
      "Ġdesign": 1512,
      "ives": 1513,
      "used": 1514,
      "imin": 1515,
      "holders": 1516,
      "land": 1517,
      "Ġerr": 1518,
      "Ġsaid": 1519,
      "Ġshow": 1520,
      "Ġexerc": 1521,
      "OL": 1522,
      "Ġsubstant": 1523,
      "15": 1524,
      "Ġ197": 1525,
      "hes": 1526,
      "ards": 1527,
      "Ġchang": 1528,
      "ural": 1529,
      "Ġcle": 1530,
      "ecutive": 1531,
      "ĠGeneral": 1532,
      "ured": 1533,
      "Ġloans": 1534,
      "Ġconsolidated": 1535,
      "Ġpaid": 1536,
      "ning": 1537,
      "Ġ16": 1538,
      "Ġconsist": 1539,
      "Ġavailable": 1540,
      "ĠIN": 1541,
      "ware": 1542,
      "ending": 1543,
      "ised": 1544,
      "Ġsince": 1545,
      "ĠReport": 1546,
      "miss": 1547,
      "verse": 1548,
      "14": 1549,
      "Ġcharg": 1550,
      "iol": 1551,
      "Ġacquis": 1552,
      "ĠComp": 1553,
      "Ġrights": 1554,
      "me": 1555,
      "arly": 1556,
      "ize": 1557,
      "Ġcompet": 1558,
      "Ġconduct": 1559,
      "Ġimpro": 1560,
      "of": 1561,
      "als": 1562,
      "Ġlevel": 1563,
      "other": 1564,
      "ink": 1565,
      "gy": 1566,
      "Ġoptions": 1567,
      "Ġinj": 1568,
      "Ġcontain": 1569,
      "Ġterms": 1570,
      "Ġparties": 1571,
      "ention": 1572,
      "change": 1573,
      "ically": 1574,
      "Ġrecogn": 1575,
      "Ġcause": 1576,
      "Ġalleg": 1577,
      "Ġstatute": 1578,
      "Ġamounts": 1579,
      "Ġprof": 1580,
      "Ġgovern": 1581,
      "Ġprot": 1582,
      "very": 1583,
      "aking": 1584,
      "Ġagree": 1585,
      "ither": 1586,
      "Ġquestion": 1587,
      "ID": 1588,
      "Ġcustomers": 1589,
      "Ġ25": 1590,
      "Ġissued": 1591,
      "Ġsystems": 1592,
      "oh": 1593,
      "ĠPresident": 1594,
      "Ġmany": 1595,
      "Ġ17": 1596,
      "Ġconn": 1597,
      "itive": 1598,
      "Ġhealth": 1599,
      "part": 1600,
      "Ġindust": 1601,
      "ĠMay": 1602,
      "18": 1603,
      "reg": 1604,
      "hod": 1605,
      "Ġsum": 1606,
      "Ġconsider": 1607,
      "ĠCount": 1608,
      "Ġstatement": 1609,
      "16": 1610,
      "Ġcor": 1611,
      "Ġloan": 1612,
      "Ġdem": 1613,
      "Ġunt": 1614,
      "Ġrequirements": 1615,
      "IC": 1616,
      "Ġcre": 1617,
      "Ġequipment": 1618,
      ");": 1619,
      "Ġspecific": 1620,
      "Ġknow": 1621,
      "Ġnecess": 1622,
      "Ġpres": 1623,
      "ety": 1624,
      "ction": 1625,
      "ĠLe": 1626,
      "onment": 1627,
      "ĠAll": 1628,
      "Ġviol": 1629,
      "Ġjust": 1630,
      "orney": 1631,
      "Ġneg": 1632,
      "Ġdam": 1633,
      "ministr": 1634,
      "ĠAmeric": 1635,
      "ument": 1636,
      "Ġclaims": 1637,
      "ently": 1638,
      "EC": 1639,
      "ton": 1640,
      "Ġdebt": 1641,
      "verage": 1642,
      "ĠOct": 1643,
      "Ġinsurance": 1644,
      "..": 1645,
      "not": 1646,
      "gage": 1647,
      "Ġtyp": 1648,
      "ording": 1649,
      "Ġrevenues": 1650,
      "Ġindic": 1651,
      "rop": 1652,
      "ger": 1653,
      "25": 1654,
      "Ġland": 1655,
      "Ġoutstanding": 1656,
      "imony": 1657,
      "Ġpeople": 1658,
      "ĠOctober": 1659,
      "Ġquarter": 1660,
      "ferred": 1661,
      "Ġcounsel": 1662,
      "ash": 1663,
      "ins": 1664,
      "Ġcall": 1665,
      "rigin": 1666,
      "Ġfurther": 1667,
      "Ġearn": 1668,
      "Ġrates": 1669,
      "anies": 1670,
      "par": 1671,
      "Ġaffect": 1672,
      "ĠCons": 1673,
      "pre": 1674,
      "Ġparty": 1675,
      "to": 1676,
      "Ġclass": 1677,
      "Ġdecre": 1678,
      "app": 1679,
      "ĠFeb": 1680,
      "Ġregard": 1681,
      "IT": 1682,
      "vir": 1683,
      "Ġeven": 1684,
      "17": 1685,
      "crib": 1686,
      "Ġcare": 1687,
      "ruary": 1688,
      "ting": 1689,
      "Ġgo": 1690,
      "ibility": 1691,
      "urred": 1692,
      "Ġmethod": 1693,
      "urity": 1694,
      "ĠFebruary": 1695,
      "ĠTH": 1696,
      "fficient": 1697,
      "arent": 1698,
      "Ġred": 1699,
      "ĠCO": 1700,
      "tern": 1701,
      "ĠJuly": 1702,
      "Ġabove": 1703,
      "ouse": 1704,
      "ĠHowever": 1705,
      "for": 1706,
      "iven": 1707,
      "Ġlife": 1708,
      "Ġbal": 1709,
      "Ġ2000": 1710,
      "sequ": 1711,
      "Ġemployees": 1712,
      "orld": 1713,
      "isl": 1714,
      "Ġrese": 1715,
      "though": 1716,
      "ons": 1717,
      "Ġwhile": 1718,
      "Ġdecision": 1719,
      "Ġident": 1720,
      "ires": 1721,
      "Ġusing": 1722,
      "ading": 1723,
      "Ġreceived": 1724,
      "pril": 1725,
      "Ġobtain": 1726,
      "up": 1727,
      "Ġvarious": 1728,
      "ribution": 1729,
      "Ġpetition": 1730,
      "Ġgrow": 1731,
      "orn": 1732,
      "Ġexpense": 1733,
      "ience": 1734,
      "ii": 1735,
      "ield": 1736,
      "ody": 1737,
      "Ġjur": 1738,
      "Ġdata": 1739,
      "ivers": 1740,
      "Ġuntil": 1741,
      "line": 1742,
      "Ġorigin": 1743,
      "Ġ28": 1744,
      "Ġsecond": 1745,
      "ually": 1746,
      "Ġlic": 1747,
      "af": 1748,
      "pl": 1749,
      "ĠApril": 1750,
      "orth": 1751,
      "Ġexc": 1752,
      "Ġsever": 1753,
      "Ġcommun": 1754,
      "Ġcases": 1755,
      "Ġdifferent": 1756,
      "Ġcontrol": 1757,
      "Ġqual": 1758,
      "abilities": 1759,
      "Ġcent": 1760,
      "iation": 1761,
      "ĠRegistrant": 1762,
      "Ġpower": 1763,
      "ars": 1764,
      "Ġtransact": 1765,
      "Ġord": 1766,
      "30": 1767,
      "Ġreasonable": 1768,
      "lp": 1769,
      "Ġoblig": 1770,
      "ale": 1771,
      "ules": 1772,
      "ential": 1773,
      "Ġgood": 1774,
      "Ġlimited": 1775,
      "Ġentered": 1776,
      "Ġtestimony": 1777,
      "Ġflow": 1778,
      "UR": 1779,
      "chool": 1780,
      "lied": 1781,
      "ĠStatement": 1782,
      "ĠCounty": 1783,
      "duced": 1784,
      "ĠSTATE": 1785,
      "ode": 1786,
      "Ġstated": 1787,
      "Ġhow": 1788,
      "Ġindivid": 1789,
      "Ġaccept": 1790,
      "Ġend": 1791,
      "Ġbelieves": 1792,
      "los": 1793,
      "ts": 1794,
      "stances": 1795,
      "Ġ24": 1796,
      "uments": 1797,
      "Ġsm": 1798,
      "ĠRE": 1799,
      "Ġchange": 1800,
      "Ġassoci": 1801,
      "lev": 1802,
      "ator": 1803,
      "Ġincorporated": 1804,
      "ĠCal": 1805,
      "Ġgr": 1806,
      "Ġhelp": 1807,
      "ĠAug": 1808,
      "ification": 1809,
      "vironment": 1810,
      "Ġherein": 1811,
      "Ġgranted": 1812,
      "Ġwater": 1813,
      "Ġ1992": 1814,
      "Ġsection": 1815,
      "CIAL": 1816,
      "Ġadj": 1817,
      "ĠExhibit": 1818,
      "ources": 1819,
      "ĠÂ¶": 1820,
      "Ġappellant": 1821,
      "ĠNove": 1822,
      "Ġsecurities": 1823,
      "ĠCommission": 1824,
      "Ġgas": 1825,
      "ĠDuring": 1826,
      "Ġpursuant": 1827,
      "ĠQ": 1828,
      "Ġ27": 1829,
      "ĠAugust": 1830,
      "sec": 1831,
      "ĠNovember": 1832,
      "Ġado": 1833,
      "raph": 1834,
      "Ġrespons": 1835,
      "Ġbuild": 1836,
      "Ġobject": 1837,
      "Ġactivities": 1838,
      "Ġmer": 1839,
      "Ġcompanies": 1840,
      "Ġhowever": 1841,
      "ising": 1842,
      "Ġbo": 1843,
      "ortgage": 1844,
      "ĠSc": 1845,
      "pri": 1846,
      "Ġmaintain": 1847,
      "Ġwar": 1848,
      "Ġstatut": 1849,
      "ĠDistrict": 1850,
      "ium": 1851,
      "Ġbro": 1852,
      "orrow": 1853,
      "Ġpartic": 1854,
      "Ġaccounting": 1855,
      "ĠEn": 1856,
      "Ġant": 1857,
      "Ġinit": 1858,
      "Ġimport": 1859,
      "Ġ23": 1860,
      "Ġinvestment": 1861,
      "ĠFIN": 1862,
      "endent": 1863,
      "uce": 1864,
      "Ġdr": 1865,
      "ili": 1866,
      "Ġdivid": 1867,
      "ĠCON": 1868,
      "Ġ29": 1869,
      "Ġpract": 1870,
      "Ġdiscuss": 1871,
      "Ġcircum": 1872,
      "Ġback": 1873,
      "Ġeffective": 1874,
      "Ġser": 1875,
      "Ġday": 1876,
      "Ġcompensation": 1877,
      "Ġmeet": 1878,
      "Ġprincipal": 1879,
      "Ġthird": 1880,
      "Ġfollows": 1881,
      "ĠCol": 1882,
      "Ġbeh": 1883,
      "imes": 1884,
      "Ġlease": 1885,
      "ks": 1886,
      "Ġindividual": 1887,
      "Ġvol": 1888,
      "Ġpoint": 1889,
      "Ġproject": 1890,
      "Ġrule": 1891,
      "itness": 1892,
      "way": 1893,
      "Ġfees": 1894,
      "icle": 1895,
      "Ġpolicy": 1896,
      "ĠFINAN": 1897,
      "Ġcompared": 1898,
      "Ġbelow": 1899,
      "lem": 1900,
      "by": 1901,
      "Ġsumm": 1902,
      "ron": 1903,
      "ĠTo": 1904,
      "Ġreturn": 1905,
      "Ġconclud": 1906,
      "Ġpar": 1907,
      "Ġeng": 1908,
      "Ġaverage": 1909,
      "Ġhearing": 1910,
      "Ġfl": 1911,
      "Ġpot": 1912,
      "Ġsold": 1913,
      "Ġem": 1914,
      "Ġdistrict": 1915,
      "Ġrequest": 1916,
      "ĠFINANCIAL": 1917,
      "Ġ26": 1918,
      "icial": 1919,
      "ĠMc": 1920,
      "ters": 1921,
      "Ġchanges": 1922,
      "Ġposition": 1923,
      "Ġconcern": 1924,
      "34": 1925,
      "Ġimm": 1926,
      "MENTS": 1927,
      "Ġacquisition": 1928,
      "Ġfacilities": 1929,
      "alf": 1930,
      "ulation": 1931,
      "bers": 1932,
      "ĠServ": 1933,
      "empt": 1934,
      "here": 1935,
      "Ġve": 1936,
      "ccess": 1937,
      "Ġconnection": 1938,
      "Ġopp": 1939,
      "22": 1940,
      "Ġchildren": 1941,
      "Ġpayment": 1942,
      "Ġreflect": 1943,
      "Ġfederal": 1944,
      "Ġmem": 1945,
      "Ġcondition": 1946,
      "lor": 1947,
      "urer": 1948,
      "Ġinst": 1949,
      "Ġfive": 1950,
      "Ġamong": 1951,
      ",\"": 1952,
      "Ġdays": 1953,
      "Ġliability": 1954,
      "Ġcomput": 1955,
      "Ġadministr": 1956,
      "Ġsell": 1957,
      "Ġcommit": 1958,
      "Ġparticular": 1959,
      "Ġassum": 1960,
      "Ġseveral": 1961,
      "ĠSection": 1962,
      "ley": 1963,
      "Ġeither": 1964,
      "Ġfr": 1965,
      "Ġtreat": 1966,
      "ries": 1967,
      "poses": 1968,
      "Ġanal": 1969,
      "Ġjudge": 1970,
      "Ġut": 1971,
      "imum": 1972,
      "Ġhand": 1973,
      "ĠTrust": 1974,
      "Ġhist": 1975,
      "pose": 1976,
      "ably": 1977,
      "ĠâĢĺ": 1978,
      "Ġprevious": 1979,
      ".)": 1980,
      "Ġhome": 1981,
      "Ġlimit": 1982,
      "ATION": 1983,
      "Ġnotes": 1984,
      "term": 1985,
      "ercial": 1986,
      "Ġfacility": 1987,
      "uation": 1988,
      "aving": 1989,
      "Ġmatter": 1990,
      "isd": 1991,
      "Ġconditions": 1992,
      "Ġplace": 1993,
      "Ġerror": 1994,
      "Ġbenefits": 1995,
      "ĠSp": 1996,
      "Ġche": 1997,
      "Ġcompl": 1998,
      "Ġequity": 1999,
      "Ġforth": 2000,
      "Ġimpact": 2001,
      "Ġgroup": 2002,
      "val": 2003,
      "Ġpayments": 2004,
      "Ġdepos": 2005,
      "ĠDirectors": 2006,
      "Ġed": 2007,
      "Ġoption": 2008,
      "osed": 2009,
      "Ġprovisions": 2010,
      "ĠStatements": 2011,
      "Ġlegal": 2012,
      "Ġanother": 2013,
      "Ġacquired": 2014,
      "Ġway": 2015,
      "Ġestate": 2016,
      "Ġagreements": 2017,
      "ĠIntern": 2018,
      "Ġgiven": 2019,
      "vert": 2020,
      "ĠNO": 2021,
      "aged": 2022,
      "CC": 2023,
      "ĠUnder": 2024,
      "Ġpurposes": 2025,
      "ĠOper": 2026,
      "uch": 2027,
      "Ġsubsidiaries": 2028,
      "40": 2029,
      "Ġnow": 2030,
      "Ġarea": 2031,
      "Ġtak": 2032,
      "ĠNotes": 2033,
      "Ġsimil": 2034,
      "Ġdetermined": 2035,
      "ah": 2036,
      "Ġnecessary": 2037,
      "gg": 2038,
      "self": 2039,
      "Ġowned": 2040,
      ")(": 2041,
      "Ġ22": 2042,
      "Ġpriv": 2043,
      "Ġ40": 2044,
      "ĠPre": 2045,
      "ohn": 2046,
      "Ġfull": 2047,
      "Ġcurrently": 2048,
      "Ġappear": 2049,
      "Ġgovernment": 2050,
      "ĠSub": 2051,
      "Ġspecial": 2052,
      "Ġlosses": 2053,
      "ĠManagement": 2054,
      "Ġexpress": 2055,
      "ĠTO": 2056,
      "ĠOffic": 2057,
      "Ġlegisl": 2058,
      "Ġwitness": 2059,
      "Ġliabilities": 2060,
      "Ġhig": 2061,
      "Ġproduction": 2062,
      "Ġofficers": 2063,
      "Ġtake": 2064,
      "Ġentit": 2065,
      "ĠII": 2066,
      "60": 2067,
      "endment": 2068,
      "ATED": 2069,
      "Ġdecl": 2070,
      "75": 2071,
      "Ġintern": 2072,
      "Ġassess": 2073,
      "Ġadverse": 2074,
      "Ġincludes": 2075,
      "ealth": 2076,
      "Ġshort": 2077,
      "xt": 2078,
      "Ġattorney": 2079,
      "get": 2080,
      "ĠAnd": 2081,
      "Ġfam": 2082,
      "Ġphys": 2083,
      "ining": 2084,
      "Ġdi": 2085,
      "Ġenvironment": 2086,
      "Ġaward": 2087,
      "Ġtestified": 2088,
      "33": 2089,
      "Ġcannot": 2090,
      "ief": 2091,
      "Ġread": 2092,
      "Ġline": 2093,
      "Ġresearch": 2094,
      "Ġsuccess": 2095,
      "Ġart": 2096,
      "Ġmo": 2097,
      "urch": 2098,
      "Ġindustry": 2099,
      "Ġcircumstances": 2100,
      "ey": 2101,
      "outh": 2102,
      "stitut": 2103,
      "Ġestimated": 2104,
      "Ġbl": 2105,
      "ĠDef": 2106,
      "Ġcover": 2107,
      "Ġsett": 2108,
      "198": 2109,
      "Ġdeath": 2110,
      "Ġrestr": 2111,
      "Ġmonths": 2112,
      "Ġorgan": 2113,
      "ĠTHE": 2114,
      "etwork": 2115,
      "Ġwarrant": 2116,
      "Ġworld": 2117,
      "Ġtaxes": 2118,
      "Ġreli": 2119,
      "ĠDr": 2120,
      "Ġfactors": 2121,
      "Ġconsidered": 2122,
      "enn": 2123,
      "Ġlocal": 2124,
      "Ġparticip": 2125,
      "ĠJohn": 2126,
      "Ġdistribut": 2127,
      "Ġfacts": 2128,
      "ĠCity": 2129,
      "ĠVice": 2130,
      "Ġfun": 2131,
      "Ġexisting": 2132,
      "conom": 2133,
      "Ġlarge": 2134,
      "ĠNote": 2135,
      "ĠBut": 2136,
      "Ġbalance": 2137,
      "Ġcustomer": 2138,
      "asing": 2139,
      "angu": 2140,
      "Ġexam": 2141,
      "Ġexpected": 2142,
      "Ġnotice": 2143,
      "Ġrelations": 2144,
      "Ġgre": 2145,
      "Ġability": 2146,
      "Ġproblem": 2147,
      "Ġdel": 2148,
      "Ġsepar": 2149,
      "Ġexercise": 2150,
      "Ġbre": 2151,
      "ĠAccount": 2152,
      "Ġcarry": 2153,
      "Ġpresented": 2154,
      "Ġrespond": 2155,
      "ĠSecurities": 2156,
      "The": 2157,
      "Ġrest": 2158,
      "Ġevery": 2159,
      "ĠOr": 2160,
      "ĠShe": 2161,
      "ling": 2162,
      "Ġsimilar": 2163,
      "ĠTe": 2164,
      "Ġfour": 2165,
      "ftware": 2166,
      "eng": 2167,
      "Ġsit": 2168,
      "ĠId": 2169,
      "Ġproperties": 2170,
      "Ġ50": 2171,
      "Ġborrow": 2172,
      "Ġcharge": 2173,
      "ĠSU": 2174,
      "sp": 2175,
      "rect": 2176,
      "enced": 2177,
      "Ġaccounts": 2178,
      "ING": 2179,
      "ĠItem": 2180,
      "Ġsup": 2181,
      "Ġrequires": 2182,
      "Ġvery": 2183,
      "Ġagg": 2184,
      "uit": 2185,
      "unt": 2186,
      "ourse": 2187,
      "ism": 2188,
      "Ġpurpose": 2189,
      "ĠWhen": 2190,
      "emp": 2191,
      "eed": 2192,
      "Ġadopt": 2193,
      "ĠConsolidated": 2194,
      "ancing": 2195,
      "Ġaffirm": 2196,
      "Ġearnings": 2197,
      "ysis": 2198,
      "Ġlocated": 2199,
      "Ġlower": 2200,
      "ĠCont": 2201,
      "igation": 2202,
      "Ġdefendants": 2203,
      "ĠPh": 2204,
      "elle": 2205,
      "lying": 2206,
      "Ġsufficient": 2207,
      "199": 2208,
      "Ġtre": 2209,
      "Ġrecorded": 2210,
      "Ġschool": 2211,
      "Ġannual": 2212,
      "Ġcollect": 2213,
      "ived": 2214,
      "ĠAnnual": 2215,
      "Ġestablished": 2216,
      "king": 2217,
      "retion": 2218,
      "Ġportion": 2219,
      "Ġtechnology": 2220,
      "____": 2221,
      "cribed": 2222,
      "24": 2223,
      "Ġissues": 2224,
      "Ġmajority": 2225,
      "Ġcontinue": 2226,
      "Ġprovision": 2227,
      "Ġamended": 2228,
      "use": 2229,
      "Ġpost": 2230,
      "ises": 2231,
      "osp": 2232,
      "Ġaddress": 2233,
      "Ġground": 2234,
      "Ġtherefore": 2235,
      "Ġoffice": 2236,
      "Ġrecognized": 2237,
      "Ġadjust": 2238,
      "Ġaudit": 2239,
      "Ġcert": 2240,
      "Ġbenefit": 2241,
      "Ġsmall": 2242,
      "Ġple": 2243,
      "Ġrevenue": 2244,
      "Ġconstruction": 2245,
      "Ġcal": 2246,
      "Ġmortgage": 2247,
      "Ġopen": 2248,
      "Ġcontracts": 2249,
      "Ġprom": 2250,
      "rec": 2251,
      "Ġdri": 2252,
      "Ġdamages": 2253,
      "Ġcommercial": 2254,
      "Ġapplication": 2255,
      "Ġassociated": 2256,
      "ask": 2257,
      "ral": 2258,
      "ĠThey": 2259,
      "ĠSTATEMENTS": 2260,
      "Ġlist": 2261,
      "Ġjurisd": 2262,
      "ought": 2263,
      "Ġentitled": 2264,
      "Ġconsum": 2265,
      "ained": 2266,
      "--------": 2267,
      "Ġaccord": 2268,
      "Ġ--": 2269,
      "ĠExecutive": 2270,
      "Ġlangu": 2271,
      "Ġimportant": 2272,
      "Ġpass": 2273,
      "Ġmight": 2274,
      "23": 2275,
      "Ġalleged": 2276,
      "oll": 2277,
      "ĠâĢĵ": 2278,
      "avor": 2279,
      "Ġmeas": 2280,
      "Ġdistribution": 2281,
      "Ġann": 2282,
      "ote": 2283,
      "az": 2284,
      "Ġten": 2285,
      "Ġeconom": 2286,
      "uck": 2287,
      "Ġemployee": 2288,
      "Ġaccess": 2289,
      "ault": 2290,
      "stitutional": 2291,
      "Ġmean": 2292,
      "Ġprem": 2293,
      "Ġmedical": 2294,
      "ĠCode": 2295,
      "Ġget": 2296,
      "Ġ196": 2297,
      "vest": 2298,
      "Ġsupra": 2299,
      "preme": 2300,
      "acter": 2301,
      "iminal": 2302,
      "\"),": 2303,
      "Ġdiscretion": 2304,
      "partment": 2305,
      "Ġsy": 2306,
      "enior": 2307,
      "Ġbegin": 2308,
      "Ġvari": 2309,
      "Ġdetermine": 2310,
      "aging": 2311,
      "Ġapplicable": 2312,
      "AT": 2313,
      "ier": 2314,
      "icted": 2315,
      "abor": 2316,
      "Ġsuper": 2317,
      "Ġproced": 2318,
      "Ġevent": 2319,
      "ains": 2320,
      "reed": 2321,
      "197": 2322,
      "Ġhigher": 2323,
      "Ġperformance": 2324,
      "nel": 2325,
      "ivision": 2326,
      "Ġfunds": 2327,
      "Ġlit": 2328,
      "ateg": 2329,
      "Ġdismiss": 2330,
      "Ġregarding": 2331,
      "Ġimprove": 2332,
      "inated": 2333,
      "Ġrecover": 2334,
      "Ġrent": 2335,
      "atural": 2336,
      "ĠAmerican": 2337,
      "ependent": 2338,
      "Ġplans": 2339,
      "Ġdown": 2340,
      "Ġnote": 2341,
      "edi": 2342,
      "ler": 2343,
      "uty": 2344,
      "ands": 2345,
      "Ġcoll": 2346,
      "omet": 2347,
      "Ġsoftware": 2348,
      "200": 2349,
      "Ġlet": 2350,
      "27": 2351,
      "Ġsubsidiary": 2352,
      "Ġsubstantial": 2353,
      "hing": 2354,
      "ames": 2355,
      "ortun": 2356,
      "ĠNational": 2357,
      "Ġexcept": 2358,
      "Ġhum": 2359,
      "Ġtrust": 2360,
      "Ġra": 2361,
      "ĠMont": 2362,
      "ĠFirst": 2363,
      "Ġserved": 2364,
      "Ġsched": 2365,
      "ĠEd": 2366,
      "Ġparent": 2367,
      "Ġstandards": 2368,
      "ĠAccording": 2369,
      "iving": 2370,
      "Ġel": 2371,
      "28": 2372,
      "ĠAlthough": 2373,
      "ĠCent": 2374,
      "state": 2375,
      "Ġcapac": 2376,
      "Ġreported": 2377,
      "Ġcomb": 2378,
      "TEM": 2379,
      "OU": 2380,
      "Ġpropos": 2381,
      "21": 2382,
      "Ġknown": 2383,
      "Ġpotential": 2384,
      "Ġappropri": 2385,
      "Ġauthority": 2386,
      "Ġtaken": 2387,
      "Ġview": 2388,
      "ample": 2389,
      "Ġlanguage": 2390,
      "26": 2391,
      "ane": 2392,
      "ison": 2393,
      "Ġmult": 2394,
      "Ġprosec": 2395,
      "Ġword": 2396,
      "Ġamort": 2397,
      "Ġoil": 2398,
      "Ġlight": 2399,
      "ications": 2400,
      "ĠPr": 2401,
      "mission": 2402,
      "Ġpersonal": 2403,
      "Ġcomplaint": 2404,
      "Ġrelationship": 2405,
      "35": 2406,
      "Ġfailure": 2407,
      "oot": 2408,
      "Ġeff": 2409,
      "see": 2410,
      "29": 2411,
      "Ġstatutory": 2412,
      "egr": 2413,
      "RS": 2414,
      "iversity": 2415,
      "Ġmarkets": 2416,
      "Ġguil": 2417,
      "Ġmarketing": 2418,
      "Ġaggreg": 2419,
      "Ġable": 2420,
      "Ġinstr": 2421,
      "ems": 2422,
      "Ġbelieve": 2423,
      "Ġ0": 2424,
      "Ġdev": 2425,
      "Ġgrowth": 2426,
      "Ġchar": 2427,
      "Ġregulations": 2428,
      "ĠIll": 2429,
      "ĠCONS": 2430,
      "olution": 2431,
      "Ġaccordance": 2432,
      "Ġlast": 2433,
      "duction": 2434,
      "Ġmuch": 2435,
      "equ": 2436,
      "iam": 2437,
      "Ġbecome": 2438,
      "Ġtrad": 2439,
      "ĠOfficer": 2440,
      "cri": 2441,
      "Ġeval": 2442,
      "overed": 2443,
      "orporate": 2444,
      "ĠJust": 2445,
      "Ġpayable": 2446,
      "Ġestablish": 2447,
      "ories": 2448,
      "orts": 2449,
      "Ġlater": 2450,
      "Ġnetwork": 2451,
      "lusion": 2452,
      "ĠJud": 2453,
      "ev": 2454,
      "ĠNOTE": 2455,
      "ĠSupreme": 2456,
      "Ġequal": 2457,
      "ĠCar": 2458,
      "ĠIns": 2459,
      "ĠExchange": 2460,
      "Ġsentence": 2461,
      "oy": 2462,
      "Ġprotect": 2463,
      "Ġautom": 2464,
      "ists": 2465,
      "Ġcontribut": 2466,
      "aining": 2467,
      "ulated": 2468,
      "Ġsk": 2469,
      "ERS": 2470,
      "Ġmy": 2471,
      "Ġcharged": 2472,
      "ĠIs": 2473,
      "Ġfix": 2474,
      "ĠMin": 2475,
      "Ġsw": 2476,
      "Ġsaf": 2477,
      "Ġholding": 2478,
      "ĠFr": 2479,
      "Ġfavor": 2480,
      "enture": 2481,
      "MENT": 2482,
      "Ġincurred": 2483,
      "Ġpossible": 2484,
      "Ġdefense": 2485,
      "Ġabs": 2486,
      "Ġexcess": 2487,
      "Ġleases": 2488,
      "ĠAssoci": 2489,
      "Ġveh": 2490,
      "rug": 2491,
      "erve": 2492,
      "Ġfood": 2493,
      "oid": 2494,
      "EL": 2495,
      "Ġname": 2496,
      "Ġtable": 2497,
      "Ġ60": 2498,
      "sw": 2499,
      "FAS": 2500,
      "ĠWill": 2501,
      "Ġstandard": 2502,
      "Ġdeli": 2503,
      "Ġproceedings": 2504,
      "iforn": 2505,
      "quid": 2506,
      "Ġtreatment": 2507,
      "ĠChief": 2508,
      "Ġprices": 2509,
      "Ġdenied": 2510,
      "acy": 2511,
      "Ġcourse": 2512,
      "\").": 2513,
      "ifornia": 2514,
      "Ġlearn": 2515,
      "cy": 2516,
      "ences": 2517,
      "ĠMed": 2518,
      "ĠYear": 2519,
      "anch": 2520,
      "ĠFederal": 2521,
      "Ġinfl": 2522,
      "ring": 2523,
      "Ġlook": 2524,
      "read": 2525,
      "day": 2526,
      "oney": 2527,
      "ograph": 2528,
      "Ġofficer": 2529,
      "Ġstates": 2530,
      "ĠMiss": 2531,
      "Ġ21": 2532,
      "Ġcalled": 2533,
      "go": 2534,
      "ĠCalifornia": 2535,
      "Ġcompon": 2536,
      "Ġ1991": 2537,
      "âĢĶ": 2538,
      "OLID": 2539,
      "Ġwritten": 2540,
      "Ġforeign": 2541,
      "earch": 2542,
      "Ġreserv": 2543,
      "45": 2544,
      "Ġdefined": 2545,
      "ĠLo": 2546,
      "den": 2547,
      "Ġinvestments": 2548,
      "wise": 2549,
      "Ġremaining": 2550,
      "Ġsix": 2551,
      "ension": 2552,
      "ators": 2553,
      "inary": 2554,
      "Ġoriginal": 2555,
      "ĠGroup": 2556,
      "Ġattempt": 2557,
      "Ġinvolved": 2558,
      "RE": 2559,
      "ĠCONSOLID": 2560,
      "Ġmembers": 2561,
      "mb": 2562,
      "Ġdeferred": 2563,
      "Ġchall": 2564,
      "ĠAfter": 2565,
      "Ġrelating": 2566,
      "Ġadministrative": 2567,
      "Ġmar": 2568,
      "ĠWhile": 2569,
      "lood": 2570,
      "apital": 2571,
      "set": 2572,
      "Ġfinal": 2573,
      "Ġlaws": 2574,
      "Ġargument": 2575,
      "ried": 2576,
      "Ġdisclos": 2577,
      "Ġ33": 2578,
      "Ġhaving": 2579,
      "ĠAppeal": 2580,
      "ĠITEM": 2581,
      "Ġleast": 2582,
      "Ġvict": 2583,
      "Ġinjury": 2584,
      ",âĢĿ": 2585,
      "Ġaffili": 2586,
      "Ġproceeds": 2587,
      "Ġoffer": 2588,
      "ession": 2589,
      "Ġplaintiffs": 2590,
      "ĠCONSOLIDATED": 2591,
      "int": 2592,
      "ictions": 2593,
      "Ġlevels": 2594,
      "Ġintegr": 2595,
      "ĠRule": 2596,
      "Ġextent": 2597,
      "ental": 2598,
      "Ġsing": 2599,
      "ender": 2600,
      "ĠBy": 2601,
      "Ġcorrect": 2602,
      "Ġclear": 2603,
      "Ġprep": 2604,
      "Ġpreviously": 2605,
      "Ġplant": 2606,
      "Ġlead": 2607,
      "bur": 2608,
      "Ġexpl": 2609,
      "ittee": 2610,
      "80": 2611,
      "ival": 2612,
      "Ġareas": 2613,
      "Ġcharges": 2614,
      "year": 2615,
      "%,": 2616,
      "ying": 2617,
      "aff": 2618,
      "dition": 2619,
      "Ġnature": 2620,
      "47": 2621,
      "ina": 2622,
      "Ġtransactions": 2623,
      "ene": 2624,
      "Ġcell": 2625,
      "ĠLim": 2626,
      "Ġemployment": 2627,
      "Ġdirectors": 2628,
      "akes": 2629,
      "Ġopportun": 2630,
      "ĠYork": 2631,
      "ĠAppellant": 2632,
      "sy": 2633,
      "Ġsubsequ": 2634,
      "Ġjurisdiction": 2635,
      "49": 2636,
      "side": 2637,
      "ĠMich": 2638,
      "Ġbody": 2639,
      "Ġintent": 2640,
      "ĠZ": 2641,
      "Ġjoint": 2642,
      "ery": 2643,
      "ables": 2644,
      "Ġmeans": 2645,
      "Ġoften": 2646,
      "Ġresulting": 2647,
      "dict": 2648,
      "Ġmanufacturing": 2649,
      "Ġpartnership": 2650,
      "Ġbur": 2651,
      "Ġintro": 2652,
      "Ġpurchased": 2653,
      "els": 2654,
      "Ġnatural": 2655,
      "osing": 2656,
      "ĠWest": 2657,
      "ĠBr": 2658,
      "Ġassign": 2659,
      "Ġcriminal": 2660,
      "Ġexchange": 2661,
      "Ġinterests": 2662,
      "46": 2663,
      "Ġfinding": 2664,
      "Ġlicense": 2665,
      "ĠMass": 2666,
      "ĠBl": 2667,
      "Ġvictim": 2668,
      "ked": 2669,
      "Ġ35": 2670,
      "Ġdispos": 2671,
      "Ġothers": 2672,
      "Ġfree": 2673,
      "gree": 2674,
      "arant": 2675,
      "Ġ100": 2676,
      "Ġinstruct": 2677,
      "Ġreceive": 2678,
      "ores": 2679,
      "Ġlow": 2680,
      "Ġassurance": 2681,
      "Ġplac": 2682,
      "Ġfailed": 2683,
      "Ġotherwise": 2684,
      "ĠBec": 2685,
      "ino": 2686,
      "ĠCan": 2687,
      "Ġboard": 2688,
      "Ġbar": 2689,
      "lose": 2690,
      "eries": 2691,
      "Ġverdict": 2692,
      "Ġaccepted": 2693,
      "ource": 2694,
      "Ġ195": 2695,
      "Ġgive": 2696,
      "jud": 2697,
      "iring": 2698,
      "36": 2699,
      "70": 2700,
      "Ġpast": 2701,
      "Ġperiods": 2702,
      "Ġcli": 2703,
      "elf": 2704,
      "ipp": 2705,
      "AC": 2706,
      "apt": 2707,
      "alty": 2708,
      "Ġund": 2709,
      "Ġquality": 2710,
      "Ġarr": 2711,
      "Ġneglig": 2712,
      "Ġestimates": 2713,
      "Ġdecrease": 2714,
      "Ġvis": 2715,
      "Ġbuilding": 2716,
      "Ġaccompany": 2717,
      "Ġflows": 2718,
      "Ġdoc": 2719,
      "Ġprinciples": 2720,
      "SI": 2721,
      "Ġpop": 2722,
      "ĠOur": 2723,
      "Ġmaking": 2724,
      "ĠNorth": 2725,
      "ĠGe": 2726,
      "ledge": 2727,
      "Ġnext": 2728,
      "Ġappropriate": 2729,
      "liance": 2730,
      "ĠLaw": 2731,
      "Ġcompleted": 2732,
      "Ġcomplete": 2733,
      "eep": 2734,
      "Ġstill": 2735,
      "Ġaggregate": 2736,
      "att": 2737,
      "Ġcaused": 2738,
      "Ġstart": 2739,
      "Ġworking": 2740,
      "ĠOther": 2741,
      "Ġdise": 2742,
      "Ġfamily": 2743,
      "Ġpersons": 2744,
      "Ġsat": 2745,
      "48": 2746,
      "Ġdescribed": 2747,
      "ĠDefendant": 2748,
      "Ġdom": 2749,
      "Ġsubstantially": 2750,
      "sh": 2751,
      "500": 2752,
      "ĠWith": 2753,
      "RO": 2754,
      "Ġtele": 2755,
      "Ġpred": 2756,
      "Ġadopted": 2757,
      "Ġrele": 2758,
      "Ġexperi": 2759,
      "Ġnever": 2760,
      "Ġpolice": 2761,
      "Ġaccompanying": 2762,
      "Ġobligations": 2763,
      "ĠSystem": 2764,
      "ration": 2765,
      "Ġexecutive": 2766,
      "Ġdividends": 2767,
      "Ġet": 2768,
      "ĠTrans": 2769,
      "ead": 2770,
      "Ġwa": 2771,
      "ĠDirector": 2772,
      "Ġfoc": 2773,
      "etter": 2774,
      "agn": 2775,
      "âĢĺ": 2776,
      "Ġturn": 2777,
      "ached": 2778,
      "39": 2779,
      "Ġbest": 2780,
      "Ġindependent": 2781,
      "ones": 2782,
      "Ġsingle": 2783,
      "icult": 2784,
      "ĠNet": 2785,
      "ici": 2786,
      "Ġdemand": 2787,
      "Ġexample": 2788,
      "ĠCredit": 2789,
      "ĠNeb": 2790,
      "Ġmur": 2791,
      "38": 2792,
      "Ġentire": 2793,
      "ĠEu": 2794,
      "Ġfee": 2795,
      "ĠMark": 2796,
      "Ġcharacter": 2797,
      "Ġes": 2798,
      "ĠEmploy": 2799,
      "fer": 2800,
      "Ġpercentage": 2801,
      "LE": 2802,
      "Ġanticip": 2803,
      "Ġrather": 2804,
      "Ġunc": 2805,
      "ills": 2806,
      "ĠLimited": 2807,
      "Ġcorporation": 2808,
      "Ġselect": 2809,
      "Ġi": 2810,
      "Ġliquid": 2811,
      "nces": 2812,
      "Ġactions": 2813,
      "Ġpen": 2814,
      "Ġagreed": 2815,
      "ged": 2816,
      "uses": 2817,
      "ana": 2818,
      "pro": 2819,
      "ĠSm": 2820,
      "Ġenc": 2821,
      "lt": 2822,
      "ospital": 2823,
      "Ġcontinu": 2824,
      "la": 2825,
      "Ġnear": 2826,
      "Ġbook": 2827,
      "Ġrul": 2828,
      "Ġstudents": 2829,
      "Ġgreater": 2830,
      "ĠThat": 2831,
      "Ġprograms": 2832,
      "ĠMar": 2833,
      "Ġappell": 2834,
      "omes": 2835,
      "ĠArk": 2836,
      "Ġfeet": 2837,
      "ck": 2838,
      "Ġsummary": 2839,
      "anced": 2840,
      "Ġexperience": 2841,
      "Ġansw": 2842,
      "Ġobs": 2843,
      "ott": 2844,
      "37": 2845,
      "Ġwant": 2846,
      "ĠAmendment": 2847,
      "Ġaround": 2848,
      "Ġdrug": 2849,
      "Ġinitial": 2850,
      "Ġrat": 2851,
      "rief": 2852,
      "ĠDepartment": 2853,
      "ivil": 2854,
      "Ġsimp": 2855,
      "Ġeduc": 2856,
      "Ġhead": 2857,
      "ĠEng": 2858,
      "Ġearly": 2859,
      "Ġwee": 2860,
      "based": 2861,
      "Ġbase": 2862,
      "oting": 2863,
      "ĠUniversity": 2864,
      "Ġinsu": 2865,
      "Ġfinancing": 2866,
      "Ġdirectly": 2867,
      "imate": 2868,
      "Ġutil": 2869,
      "Ġthink": 2870,
      "Ġ1990": 2871,
      "Ġsol": 2872,
      "65": 2873,
      "Ġoccur": 2874,
      "pond": 2875,
      "Ġneeds": 2876,
      "Ġassist": 2877,
      "Ġguilty": 2878,
      "Ġbroad": 2879,
      "ggest": 2880,
      "Ġseparate": 2881,
      "Ġadequ": 2882,
      "rel": 2883,
      "ĠUS": 2884,
      "Ġcapacity": 2885,
      "Ġmis": 2886,
      "bit": 2887,
      "aska": 2888,
      "Ġanalysis": 2889,
      "ellee": 2890,
      "ĠDel": 2891,
      "Ġrevers": 2892,
      "ĠHar": 2893,
      "let": 2894,
      "Ġindicated": 2895,
      "Ġminimum": 2896,
      "vers": 2897,
      "ida": 2898,
      "MP": 2899,
      "Ġtimes": 2900,
      "stitute": 2901,
      "Ġhouse": 2902,
      "Ġprimary": 2903,
      "Ġthings": 2904,
      "90": 2905,
      "ĠNOTES": 2906,
      "Ġage": 2907,
      "Ġstudy": 2908,
      "luding": 2909,
      "ĠProper": 2910,
      "Ġlarg": 2911,
      "ales": 2912,
      "Ġsuggest": 2913,
      "Ġactual": 2914,
      "encies": 2915,
      "US": 2916,
      "Ġwhol": 2917,
      "Ġair": 2918,
      "ĠOne": 2919,
      "Ġargues": 2920,
      "iqu": 2921,
      "Ġfixed": 2922,
      "ĠSuch": 2923,
      "itation": 2924,
      "ĠBecause": 2925,
      "ĠWilliam": 2926,
      "ĠQu": 2927,
      "ĠINC": 2928,
      "ĠHold": 2929,
      "Ġgreat": 2930,
      "Ġconsideration": 2931,
      "ĠFund": 2932,
      "Ġrules": 2933,
      "Ġcommission": 2934,
      "Ġdou": 2935,
      "Ġhuman": 2936,
      "Ġmil": 2937,
      "ĠClass": 2938,
      "Ġregulatory": 2939,
      "DA": 2940,
      "ĠAccounting": 2941,
      "ological": 2942,
      "ada": 2943,
      "raft": 2944,
      "Ġprivate": 2945,
      "rope": 2946,
      "ĠInvest": 2947,
      "Ġexceed": 2948,
      "iver": 2949,
      "Ġrange": 2950,
      "Ġsatis": 2951,
      "ĠAtt": 2952,
      "Ġmoney": 2953,
      "levant": 2954,
      "itle": 2955,
      "Ġauthorized": 2956,
      "Ġstruct": 2957,
      "Ġimplement": 2958,
      "Ġformer": 2959,
      "ocial": 2960,
      "irement": 2961,
      "ception": 2962,
      "Ġener": 2963,
      "Ġbehalf": 2964,
      "66": 2965,
      "force": 2966,
      "ope": 2967,
      "Ġdeveloped": 2968,
      "Ġfew": 2969,
      "Ġcross": 2970,
      "Ġretail": 2971,
      "Ġdefin": 2972,
      "essional": 2973,
      "Ġreduce": 2974,
      "endit": 2975,
      "Ġbecame": 2976,
      "Ġder": 2977,
      "Ġnor": 2978,
      "fully": 2979,
      "Ġdiss": 2980,
      "fol": 2981,
      "pret": 2982,
      "Ġfile": 2983,
      "Ġownership": 2984,
      "ĠGa": 2985,
      "chie": 2986,
      "lies": 2987,
      "Ġleft": 2988,
      "In": 2989,
      "Ġsay": 2990,
      "Ġspace": 2991,
      "Ġapplied": 2992,
      "Ġcrit": 2993,
      "Ġinstall": 2994,
      "Ġapplications": 2995,
      "Ġsuit": 2996,
      "avings": 2997,
      "ĠServices": 2998,
      "Ġprofit": 2999,
      "ĠFrom": 3000,
      "Ġoperation": 3001,
      "ĠInterest": 3002,
      "Ġunless": 3003,
      "Ġmatters": 3004,
      "Ġthous": 3005,
      "omen": 3006,
      "Ġaltern": 3007,
      "BS": 3008,
      "CA": 3009,
      "Ġduty": 3010,
      "Ġevalu": 3011,
      "encing": 3012,
      "Ġreduced": 3013,
      "aster": 3014,
      "Ġ38": 3015,
      "Ġresources": 3016,
      "Ġinvent": 3017,
      "Ġresponsibility": 3018,
      "hers": 3019,
      "ĠEurope": 3020,
      "izing": 3021,
      "ĠSupp": 3022,
      "Ġtoget": 3023,
      "Ġtogether": 3024,
      "iting": 3025,
      "Ġcontinued": 3026,
      "Ġcalc": 3027,
      "Ġremed": 3028,
      "ĠJustice": 3029,
      "Ġcity": 3030,
      "Ġretain": 3031,
      "Ġcrime": 3032,
      "Ġmurder": 3033,
      "Ġeconomic": 3034,
      "Ġtransaction": 3035,
      "Ġconstitutional": 3036,
      "ĠPur": 3037,
      "Ġsqu": 3038,
      "itor": 3039,
      "aper": 3040,
      "Ġdisp": 3041,
      "Ġess": 3042,
      "ĠPri": 3043,
      "Ġpo": 3044,
      "Ġmaterials": 3045,
      "Ġenergy": 3046,
      "Ġdeal": 3047,
      "ape": 3048,
      "ĠSFAS": 3049,
      "Ġprejud": 3050,
      "Ġdoct": 3051,
      "ication": 3052,
      "xy": 3053,
      "Ġ45": 3054,
      "ĠSeries": 3055,
      "Ġprevent": 3056,
      "Ġintended": 3057,
      "ourth": 3058,
      "ĠFlor": 3059,
      "CE": 3060,
      "Ġenvironmental": 3061,
      "Ġcomputer": 3062,
      "Ġsecurity": 3063,
      "Ġpractice": 3064,
      "enance": 3065,
      "obile": 3066,
      "Ġapproval": 3067,
      "rest": 3068,
      "Ġsomet": 3069,
      "bal": 3070,
      "uel": 3071,
      "Ġprec": 3072,
      "Ġcircuit": 3073,
      "Ġlikely": 3074,
      "izes": 3075,
      "ĠStand": 3076,
      "Ġconviction": 3077,
      "43": 3078,
      "Ġbrief": 3079,
      "Ġcontr": 3080,
      "Ġblood": 3081,
      "68": 3082,
      "ided": 3083,
      "Ġresulted": 3084,
      "Ġapply": 3085,
      "Ġaccording": 3086,
      "aintenance": 3087,
      "Ġmeaning": 3088,
      "Ġknowledge": 3089,
      "âĢĵ": 3090,
      "ĠBe": 3091,
      "Ġdifficult": 3092,
      "Ġdirector": 3093,
      "ĠAppeals": 3094,
      "Ġimmedi": 3095,
      "amed": 3096,
      "Ġachie": 3097,
      "ĠEqu": 3098,
      "Ġhistory": 3099,
      "Ġoutside": 3100,
      "Ġexpendit": 3101,
      "Ġproviding": 3102,
      "ĠFlorida": 3103,
      "Ġ37": 3104,
      "Ġproperly": 3105,
      "ĠSenior": 3106,
      "icing": 3107,
      "co": 3108,
      "ĠAc": 3109,
      "Ġren": 3110,
      "erg": 3111,
      "itors": 3112,
      "Ġattribut": 3113,
      "Ġsettlement": 3114,
      "ris": 3115,
      "Ġdecreased": 3116,
      "erous": 3117,
      "Ġlack": 3118,
      "Ġactivity": 3119,
      "Ġgross": 3120,
      "after": 3121,
      "Ġoccurred": 3122,
      "eg": 3123,
      "ontin": 3124,
      "Ġoffering": 3125,
      "Ġsigned": 3126,
      "Ġ39": 3127,
      "ĠCapital": 3128,
      "Ġvehicle": 3129,
      "Ġhour": 3130,
      "Ġtype": 3131,
      "Ġvolum": 3132,
      "Ġdetermination": 3133,
      "ersion": 3134,
      "Ġengine": 3135,
      "Ġinterpret": 3136,
      "lier": 3137,
      "Ġsl": 3138,
      "Ġfully": 3139,
      "TR": 3140,
      "ĠConn": 3141,
      "ĠRest": 3142,
      "Ġrelief": 3143,
      "Ġalloc": 3144,
      "urchase": 3145,
      "Ġfel": 3146,
      "Ġcompliance": 3147,
      "Ġresident": 3148,
      "Ġcontained": 3149,
      "ubl": 3150,
      "44": 3151,
      "Ġput": 3152,
      "Ġinstruments": 3153,
      "69": 3154,
      "ĠSouth": 3155,
      "Ġincreases": 3156,
      "Ġplus": 3157,
      "Ġcorporate": 3158,
      "67": 3159,
      "ov": 3160,
      "Ġcourts": 3161,
      "Ġconcerning": 3162,
      "Ġequival": 3163,
      "ateral": 3164,
      "Ġapproved": 3165,
      "Ġasset": 3166,
      "Ġphysical": 3167,
      "Ġadded": 3168,
      "Ġfindings": 3169,
      "arc": 3170,
      "ĠPer": 3171,
      "Ġrepl": 3172,
      "ĠYou": 3173,
      "Ġsust": 3174,
      "Ġdesigned": 3175,
      "ĠGeor": 3176,
      "Ġrun": 3177,
      "Ġold": 3178,
      "empor": 3179,
      "ĠFOR": 3180,
      "Ġsite": 3181,
      "Ġassert": 3182,
      "ĠAccordingly": 3183,
      "Ġdegree": 3184,
      "ĠPreferred": 3185,
      "atives": 3186,
      "ĠDisc": 3187,
      "ĠInternational": 3188,
      "ways": 3189,
      "Ġsole": 3190,
      "Ġefforts": 3191,
      "rought": 3192,
      "Ġnorm": 3193,
      "Ġaffected": 3194,
      "Ġshown": 3195,
      "illing": 3196,
      "ĠPartner": 3197,
      "Ġwhole": 3198,
      "Ġkey": 3199,
      "now": 3200,
      "Ġarrange": 3201,
      "Ġsex": 3202,
      "Ġcompetitive": 3203,
      "ĠOff": 3204,
      "ittle": 3205,
      "ients": 3206,
      "Ġreasons": 3207,
      "Ġmanufacturer": 3208,
      "Ġclose": 3209,
      "duce": 3210,
      "Ġjoin": 3211,
      "opp": 3212,
      "wards": 3213,
      "Ġaccident": 3214,
      "Ġhard": 3215,
      "ĠCompensation": 3216,
      "Ġbeginning": 3217,
      "Ġquestions": 3218,
      "ĠTex": 3219,
      "Ġeas": 3220,
      "Ġcarrying": 3221,
      "Ġrelevant": 3222,
      "rist": 3223,
      "Ġdiscussed": 3224,
      "Ġ1989": 3225,
      "Ġnoted": 3226,
      "Ġproposed": 3227,
      "PP": 3228,
      "going": 3229,
      "ĠWar": 3230,
      "ĠOption": 3231,
      "Ġinstruction": 3232,
      "ett": 3233,
      "HI": 3234,
      "ĠOperating": 3235,
      "Ġlot": 3236,
      "Ġoffset": 3237,
      "AG": 3238,
      "reen": 3239,
      "wealth": 3240,
      "ĠBar": 3241,
      "ĠInsurance": 3242,
      "Ġplay": 3243,
      "uted": 3244,
      "Ġresponse": 3245,
      "ĠRev": 3246,
      "Ġreferred": 3247,
      "'t": 3248,
      "ĠSuper": 3249,
      "Ġthus": 3250,
      "Ġrecomm": 3251,
      "Ġprotection": 3252,
      "ĠLi": 3253,
      "Ġoffense": 3254,
      "folio": 3255,
      "ĠGu": 3256,
      "Ġbetter": 3257,
      "Ġbegan": 3258,
      "42": 3259,
      "Ġpermit": 3260,
      "Ġconducted": 3261,
      "Ġviolation": 3262,
      "utes": 3263,
      "atic": 3264,
      "Ġproblems": 3265,
      "55": 3266,
      "Ġvac": 3267,
      "ĠThus": 3268,
      "Ġregistr": 3269,
      "ĠRegistration": 3270,
      "ĠIncome": 3271,
      "ĠCorp": 3272,
      "Ġtold": 3273,
      "Ġmove": 3274,
      "Ġmaintenance": 3275,
      "ĠPursuant": 3276,
      "Ġeffects": 3277,
      "Ġalthough": 3278,
      "POR": 3279,
      "Ġbi": 3280,
      "Ġconsult": 3281,
      "owa": 3282,
      "Ġhistor": 3283,
      "Ġaccounted": 3284,
      "):": 3285,
      "Ġconcluded": 3286,
      "Ġshareholders": 3287,
      "Ġsquare": 3288,
      "Ġconclusion": 3289,
      "oms": 3290,
      "Ġasked": 3291,
      "ĠCommonwealth": 3292,
      "Ġbasic": 3293,
      "Ġharm": 3294,
      "Ġcomponents": 3295,
      "ĠPartners": 3296,
      "Ġfield": 3297,
      "31": 3298,
      "onstr": 3299,
      "Ġdisease": 3300,
      "off": 3301,
      "ĠGr": 3302,
      "Ġcoverage": 3303,
      "ET": 3304,
      "ights": 3305,
      "ĠAddition": 3306,
      "Ġconclude": 3307,
      "Ġenh": 3308,
      "ĠCommittee": 3309,
      "requ": 3310,
      "rown": 3311,
      "Ġissuance": 3312,
      "Ġexpenditures": 3313,
      "br": 3314,
      "Ġinform": 3315,
      "Ġaccru": 3316,
      "Ġkeep": 3317,
      "ĠCt": 3318,
      "Ġwords": 3319,
      "Ġunits": 3320,
      "Ġpolicies": 3321,
      "Ġlines": 3322,
      "Ġenter": 3323,
      "Ġ90": 3324,
      "Ġ48": 3325,
      "ager": 3326,
      "Ġrespondent": 3327,
      "Ġstockholders": 3328,
      "Ġmax": 3329,
      "Ġobtained": 3330,
      "lements": 3331,
      "41": 3332,
      "32": 3333,
      "Ġz": 3334,
      "aur": 3335,
      "Ġinterv": 3336,
      "Ġoffered": 3337,
      "holder": 3338,
      "ĠAmerica": 3339,
      "Ġitems": 3340,
      "ĠFurther": 3341,
      "Ġmanner": 3342,
      "iana": 3343,
      "100": 3344,
      "Ġbond": 3345,
      "emed": 3346,
      "mph": 3347,
      "Ġguarant": 3348,
      "IL": 3349,
      "unications": 3350,
      "Ġfirm": 3351,
      "Ġmember": 3352,
      "Ġrad": 3353,
      "ĠArt": 3354,
      "Ġult": 3355,
      "ologies": 3356,
      "Ġproceeding": 3357,
      "ges": 3358,
      "Ġitself": 3359,
      "ĠStat": 3360,
      "ĠHealth": 3361,
      "Ġcommunity": 3362,
      "atter": 3363,
      "Ġsuff": 3364,
      "ĠOperations": 3365,
      "ĠSmith": 3366,
      "Ġear": 3367,
      "Ġmultip": 3368,
      "ĠShare": 3369,
      "Ġdon": 3370,
      "olving": 3371,
      "Ġcommitted": 3372,
      "com": 3373,
      "99": 3374,
      "illed": 3375,
      "estic": 3376,
      "Ġinstitut": 3377,
      "Ġcop": 3378,
      "anded": 3379,
      "Ġself": 3380,
      "ington": 3381,
      "Ġgen": 3382,
      "icles": 3383,
      ".[": 3384,
      "eting": 3385,
      "Ġbrought": 3386,
      "Ġdepart": 3387,
      "Ġclearly": 3388,
      "Ġdemonstr": 3389,
      "Ġalong": 3390,
      "Ġfire": 3391,
      "Ġpartners": 3392,
      "ffective": 3393,
      "Ġobserv": 3394,
      "Ġtermination": 3395,
      "spect": 3396,
      "Ġcho": 3397,
      "Ġrelative": 3398,
      "Ġtook": 3399,
      "lex": 3400,
      "ĠSince": 3401,
      "Ġlitigation": 3402,
      "Ġens": 3403,
      "Ġstrong": 3404,
      "Ġevents": 3405,
      "yond": 3406,
      "mical": 3407,
      "ĠPublic": 3408,
      "Ġir": 3409,
      "Ġcounty": 3410,
      "yc": 3411,
      "Ġerred": 3412,
      "Ġmarg": 3413,
      "Ġportfolio": 3414,
      "ext": 3415,
      "Ġhospital": 3416,
      "Ġremo": 3417,
      "oper": 3418,
      "reet": 3419,
      "Ġbeyond": 3420,
      "ifying": 3421,
      "Ġnegligence": 3422,
      "Ġgain": 3423,
      "ĠRec": 3424,
      "Ġallowed": 3425,
      "ĠSch": 3426,
      "CH": 3427,
      "aps": 3428,
      "Ġreporting": 3429,
      "alk": 3430,
      "ull": 3431,
      "ĠSE": 3432,
      "ready": 3433,
      "ĠRober": 3434,
      "Ġpremium": 3435,
      "ĠMore": 3436,
      "Ġforce": 3437,
      "Ġtoo": 3438,
      "Ġtransport": 3439,
      "vey": 3440,
      "hens": 3441,
      "Ġsocial": 3442,
      "Ġinternational": 3443,
      "Ġprofessional": 3444,
      "Ġcred": 3445,
      "ĠRel": 3446,
      "Ġunit": 3447,
      "bs": 3448,
      "Ġthough": 3449,
      "Ġwholly": 3450,
      "Ġcontends": 3451,
      "ĠPeople": 3452,
      "Ġthousands": 3453,
      "wide": 3454,
      "entive": 3455,
      "unction": 3456,
      "lusive": 3457,
      "Ġmen": 3458,
      "Ġprosecut": 3459,
      "Ġoverall": 3460,
      "ighted": 3461,
      "Ġsubsequent": 3462,
      "with": 3463,
      "Ġvalid": 3464,
      "Ġmakes": 3465,
      "UL": 3466,
      "Ġacquisitions": 3467,
      "Ġdiv": 3468,
      "emn": 3469,
      "Ġabuse": 3470,
      "Ġ80": 3471,
      "Ġowner": 3472,
      "Ġchalleng": 3473,
      "Ġreduction": 3474,
      "Ġincreasing": 3475,
      "ducing": 3476,
      "ble": 3477,
      "Ġcountries": 3478,
      "Ġtitle": 3479,
      "Ġmand": 3480,
      "hibits": 3481,
      "ĠDIS": 3482,
      "ĠMinn": 3483,
      "Ġcreate": 3484,
      "Ġnational": 3485,
      "ĠReven": 3486,
      "Ġdetail": 3487,
      "Ġpun": 3488,
      "ĠAttorney": 3489,
      "yn": 3490,
      "ensive": 3491,
      "Ġ1988": 3492,
      "Ġreceivable": 3493,
      "ides": 3494,
      "Ġalready": 3495,
      "Ġreserves": 3496,
      "St": 3497,
      "Ġexecut": 3498,
      "Ġoccup": 3499,
      "Ġforward": 3500,
      "iled": 3501,
      "ĠVal": 3502,
      "Ġsought": 3503,
      "Ġpage": 3504,
      "ole": 3505,
      "Ġtransfer": 3506,
      "AM": 3507,
      "ĠPlaintiff": 3508,
      "Ġaudits": 3509,
      "78": 3510,
      "ĠTexas": 3511,
      "IR": 3512,
      "OS": 3513,
      "Ġpersonnel": 3514,
      "Ġthroughout": 3515,
      "Ġarbit": 3516,
      "urren": 3517,
      "Ġvir": 3518,
      "Ġlabor": 3519,
      "asis": 3520,
      "phone": 3521,
      "ĠEX": 3522,
      "Ġdone": 3523,
      "law": 3524,
      "Ġgoing": 3525,
      "Ġpreferred": 3526,
      "Ġobligation": 3527,
      "Ġelectric": 3528,
      "Ġcome": 3529,
      "be": 3530,
      "Ġrisks": 3531,
      "ump": 3532,
      "PS": 3533,
      "ĠCash": 3534,
      "Ġsources": 3535,
      "Ġcontroll": 3536,
      "arth": 3537,
      "ĠCertain": 3538,
      "Ġtermin": 3539,
      "Ġinflu": 3540,
      "Ġadvert": 3541,
      "amm": 3542,
      "sc": 3543,
      "ĠPrior": 3544,
      "Ġ70": 3545,
      "ronic": 3546,
      "reciation": 3547,
      "Ġsusp": 3548,
      "etary": 3549,
      "Ġusu": 3550,
      "ificate": 3551,
      "EM": 3552,
      "58": 3553,
      "Ġsignificantly": 3554,
      "NT": 3555,
      "Ġwr": 3556,
      "Ġbusinesses": 3557,
      "Ġvalues": 3558,
      "Ġexpert": 3559,
      "gments": 3560,
      "ened": 3561,
      "ĠLeg": 3562,
      "using": 3563,
      "Ġhighly": 3564,
      "Ġrecent": 3565,
      "ĠAssociation": 3566,
      "roll": 3567,
      "Ġcompar": 3568,
      "Ġenforce": 3569,
      "inical": 3570,
      "Ġcompetition": 3571,
      "ensed": 3572,
      "IES": 3573,
      "Ġfourth": 3574,
      "ĠElect": 3575,
      "ITY": 3576,
      "lass": 3577,
      "TIN": 3578,
      "Ġsupply": 3579,
      "%.": 3580,
      "Ġvariety": 3581,
      "Ġconform": 3582,
      "ansas": 3583,
      "ctions": 3584,
      "ille": 3585,
      "Ġsegment": 3586,
      "Ġaccrued": 3587,
      "ĠACC": 3588,
      "ĠCr": 3589,
      "ĠPol": 3590,
      "ĠIncorporated": 3591,
      "UED": 3592,
      "Ġfall": 3593,
      "Ġdeposits": 3594,
      "ĠMe": 3595,
      "Ġcreated": 3596,
      "urb": 3597,
      "Ġmeasure": 3598,
      "vent": 3599,
      "Ġvest": 3600,
      "Ġstore": 3601,
      "ĠFac": 3602,
      "Ġtypes": 3603,
      "eth": 3604,
      "Ġpartner": 3605,
      "ĠLoan": 3606,
      "Ġcollateral": 3607,
      "istered": 3608,
      "Ġamortization": 3609,
      "Ġplaced": 3610,
      "Ġsource": 3611,
      "Ġomitted": 3612,
      "umb": 3613,
      "ids": 3614,
      "Ġresponsible": 3615,
      "Ġengaged": 3616,
      "ontinued": 3617,
      "Ġrenew": 3618,
      "Ġill": 3619,
      "Ġ49": 3620,
      "Ġded": 3621,
      "ĠCert": 3622,
      "ANT": 3623,
      "Ġ'": 3624,
      "Ġletter": 3625,
      "Ġrequirement": 3626,
      "Ġarrest": 3627,
      "Ġdoubt": 3628,
      "57": 3629,
      "ĠInformation": 3630,
      "IF": 3631,
      "Ġborrowings": 3632,
      "Ġlonger": 3633,
      "iated": 3634,
      "59": 3635,
      "emporary": 3636,
      "ĠAut": 3637,
      "Ġtop": 3638,
      "Ġwomen": 3639,
      "ointed": 3640,
      "Ġmeeting": 3641,
      "Ġappellee": 3642,
      "PA": 3643,
      "Ġproof": 3644,
      "Ġsafety": 3645,
      "Ġdetermining": 3646,
      "II": 3647,
      "ĠBro": 3648,
      "Ġraised": 3649,
      "cription": 3650,
      "ĠDevelop": 3651,
      "Ġattributable": 3652,
      "Ġappears": 3653,
      "comm": 3654,
      "Ġopportunity": 3655,
      "Ġspecifically": 3656,
      "ĠWhat": 3657,
      "Ġfiling": 3658,
      "osure": 3659,
      "Ġdamage": 3660,
      "ook": 3661,
      "ats": 3662,
      "Ġ1987": 3663,
      "ox": 3664,
      "Ġri": 3665,
      "Ġstep": 3666,
      "Ġstatus": 3667,
      "ĠTherefore": 3668,
      "Ġrecords": 3669,
      "itional": 3670,
      "lict": 3671,
      "Ġconsent": 3672,
      "Ġdoll": 3673,
      "uled": 3674,
      "ford": 3675,
      "Ġadequate": 3676,
      "Ġtaking": 3677,
      "Ġmus": 3678,
      "ĠEach": 3679,
      "Ġwide": 3680,
      "Ġhapp": 3681,
      "ĠâĢĺâĢĺ": 3682,
      "TER": 3683,
      "house": 3684,
      "Ġalternative": 3685,
      "bor": 3686,
      "Ġpress": 3687,
      "vis": 3688,
      "time": 3689,
      "rehens": 3690,
      "Ġlittle": 3691,
      "Ġburden": 3692,
      "Ġmere": 3693,
      "64": 3694,
      "Ġ47": 3695,
      "Ġpubl": 3696,
      "ults": 3697,
      "Ġaffirmed": 3698,
      "63": 3699,
      "ĠPark": 3700,
      "MM": 3701,
      "ama": 3702,
      "Ġholders": 3703,
      "Ġactually": 3704,
      "Ġstores": 3705,
      "Ġavoid": 3706,
      "yd": 3707,
      "Ġshows": 3708,
      "ancy": 3709,
      "ĠX": 3710,
      "ift": 3711,
      "yer": 3712,
      "Ġmach": 3713,
      "ann": 3714,
      "Ġclient": 3715,
      "Ġside": 3716,
      "Ġtrade": 3717,
      "Ġtra": 3718,
      "Ġfoot": 3719,
      "Ġrob": 3720,
      "Ġdraw": 3721,
      "Ġdiscover": 3722,
      "Ġallowance": 3723,
      "ĠSpec": 3724,
      "Ġjudicial": 3725,
      "Ġpe": 3726,
      "Ġpatients": 3727,
      "ĠService": 3728,
      "Ġorders": 3729,
      "Ġtrue": 3730,
      "ĠConstitution": 3731,
      "TINUED": 3732,
      "ections": 3733,
      "Ġanim": 3734,
      "Ġreports": 3735,
      "CON": 3736,
      "ĠMer": 3737,
      "ĠProduct": 3738,
      "ĠRet": 3739,
      "Ġanswer": 3740,
      "rog": 3741,
      "Ġlimitations": 3742,
      "Ġadmitted": 3743,
      "Ġpending": 3744,
      "Ġge": 3745,
      "Ġfunction": 3746,
      "Ġdecisions": 3747,
      "ĠTechn": 3748,
      "Ġvide": 3749,
      "mental": 3750,
      "Ġcountry": 3751,
      "entures": 3752,
      "ĠOw": 3753,
      "ored": 3754,
      "Ġsearch": 3755,
      "Ġrepresented": 3756,
      "Ġwitnesses": 3757,
      "ĠAS": 3758,
      "Ġagency": 3759,
      "ĠSome": 3760,
      "Ġdiscount": 3761,
      "Ġsubmitted": 3762,
      "Ġtool": 3763,
      "Ġ1986": 3764,
      "related": 3765,
      "Ġsecured": 3766,
      "face": 3767,
      "ĠLou": 3768,
      "Ġmaximum": 3769,
      "orage": 3770,
      "oted": 3771,
      "uries": 3772,
      "idge": 3773,
      "ĠSUBS": 3774,
      "atures": 3775,
      "rupt": 3776,
      "Ġwhy": 3777,
      "Ġsatisf": 3778,
      "Ġapproach": 3779,
      "62": 3780,
      "Ġinstitutions": 3781,
      "OC": 3782,
      "Ġtri": 3783,
      "sych": 3784,
      "ĠâĢĶ": 3785,
      "luded": 3786,
      "ĠChrist": 3787,
      "Ġdeposit": 3788,
      "Ġphot": 3789,
      "Ġparts": 3790,
      "ĠIowa": 3791,
      "Ġmother": 3792,
      "Ġcustody": 3793,
      "Ġserve": 3794,
      "Ġcontact": 3795,
      "Ġstrateg": 3796,
      "elling": 3797,
      "Ġpaper": 3798,
      "________": 3799,
      "Ġacts": 3800,
      "Ġindividuals": 3801,
      "imbur": 3802,
      "Ġconsistent": 3803,
      "Ġminor": 3804,
      "ming": 3805,
      "Ġtesting": 3806,
      "Ġenact": 3807,
      "ĠPar": 3808,
      "Ġinsured": 3809,
      "ĠMo": 3810,
      "IDI": 3811,
      "Ġbanks": 3812,
      "Ġweek": 3813,
      "Ġsets": 3814,
      "ites": 3815,
      "61": 3816,
      "levision": 3817,
      "lobal": 3818,
      "Ġemployed": 3819,
      "Ġappeals": 3820,
      "Ġpermitted": 3821,
      "Ġuses": 3822,
      "ĠCenter": 3823,
      "Ġface": 3824,
      "Ġwife": 3825,
      "Ġdig": 3826,
      "Ġcult": 3827,
      "ĠIndust": 3828,
      "Ġlegislature": 3829,
      "Ġbillion": 3830,
      "Ġmaturity": 3831,
      "Ġnamed": 3832,
      "ĠStandards": 3833,
      "Ġvolunt": 3834,
      "aul": 3835,
      "Ġprocedures": 3836,
      "Ġcur": 3837,
      "Ġinventory": 3838,
      "Ġunre": 3839,
      "ams": 3840,
      "ME": 3841,
      "ald": 3842,
      "ĠGovern": 3843,
      "Ġcurren": 3844,
      "Ġpossession": 3845,
      "Ġidentified": 3846,
      "Ġcivil": 3847,
      "Ġimmediately": 3848,
      "Ġclosing": 3849,
      "Ġconflict": 3850,
      "Ġeducation": 3851,
      "Ġstatutes": 3852,
      "IDIAR": 3853,
      "Ġthereto": 3854,
      "Ġsavings": 3855,
      "Ġcateg": 3856,
      "ĠSUBSIDIAR": 3857,
      "Ġwhose": 3858,
      "Ġscient": 3859,
      "CL": 3860,
      "ĠRobert": 3861,
      "ously": 3862,
      "raud": 3863,
      "band": 3864,
      "wh": 3865,
      "Ġregulation": 3866,
      "Ġfrequ": 3867,
      "ĠJames": 3868,
      "ategy": 3869,
      "ney": 3870,
      "Ġmodel": 3871,
      "Ġrequested": 3872,
      "\".": 3873,
      "ĠChe": 3874,
      "Ġthereof": 3875,
      "ĠDes": 3876,
      "Ġfurn": 3877,
      "Ġpolit": 3878,
      "Ġdil": 3879,
      "airman": 3880,
      "aware": 3881,
      "Ġrental": 3882,
      "Ġdomestic": 3883,
      "Ġtarg": 3884,
      "Ġcable": 3885,
      "ĠHow": 3886,
      "ĠSEC": 3887,
      "ĠOP": 3888,
      "Ġvolume": 3889,
      "Ġwrong": 3890,
      "cast": 3891,
      "Ġproduce": 3892,
      "Ġplea": 3893,
      "Ġamendment": 3894,
      "ĠLa": 3895,
      "Ġimposed": 3896,
      "pec": 3897,
      "Ġreach": 3898,
      "Ġreject": 3899,
      "Ġfeel": 3900,
      "thing": 3901,
      "IG": 3902,
      "Ġmind": 3903,
      "Ġcovered": 3904,
      "Ġappellate": 3905,
      "ĠBusiness": 3906,
      "Ġplants": 3907,
      "organ": 3908,
      "Ġseeking": 3909,
      "Ġruling": 3910,
      "CO": 3911,
      "Ġunderlying": 3912,
      "Ġrecovery": 3913,
      "Ġpresum": 3914,
      "Ġtow": 3915,
      "ivity": 3916,
      "Ġunderstand": 3917,
      "Ġcomplex": 3918,
      "ĠSim": 3919,
      "Ġreasonably": 3920,
      "Ġnormal": 3921,
      "tt": 3922,
      "augh": 3923,
      "Ġperformed": 3924,
      "Ġmental": 3925,
      "mon": 3926,
      "Ġ2001": 3927,
      "semb": 3928,
      "Ġsays": 3929,
      "Ġlisted": 3930,
      "ĠLL": 3931,
      "oking": 3932,
      "ancer": 3933,
      "Ġspecified": 3934,
      "cil": 3935,
      "Ġconsequ": 3936,
      "Ġargued": 3937,
      "ham": 3938,
      "Ġdelivery": 3939,
      "Ġacross": 3940,
      "Ġconstitut": 3941,
      "ik": 3942,
      "Ġbehav": 3943,
      "Ġemployer": 3944,
      "Ġconcur": 3945,
      "icated": 3946,
      "ado": 3947,
      "Ġlives": 3948,
      "Ġmultiple": 3949,
      "Ġdates": 3950,
      "Ġthreat": 3951,
      "Ġpack": 3952,
      "TA": 3953,
      "Ġdiscussion": 3954,
      "ĠDivision": 3955,
      "Ġstri": 3956,
      "Ġide": 3957,
      "88": 3958,
      "Ġwarrants": 3959,
      "Ġratio": 3960,
      "Ġaware": 3961,
      "ude": 3962,
      "Ġassessment": 3963,
      "Ġnegot": 3964,
      "Ġyet": 3965,
      "Ġproduced": 3966,
      "Ġarm": 3967,
      "Ġmonthly": 3968,
      "NA": 3969,
      "Ġfar": 3970,
      "Ġamortized": 3971,
      "Ġwent": 3972,
      "Ġprocessing": 3973,
      "Ġearlier": 3974,
      "Ġhab": 3975,
      "Ġroad": 3976,
      "uations": 3977,
      "Ġprojects": 3978,
      "mpt": 3979,
      "Ġsimply": 3980,
      "Ġselling": 3981,
      "Ġexception": 3982,
      "Ġdocument": 3983,
      "gress": 3984,
      "77": 3985,
      "ĠRespond": 3986,
      "Ġstaff": 3987,
      "ĠDec": 3988,
      "Ġreimbur": 3989,
      "Ġpain": 3990,
      "ĠIII": 3991,
      "Ġinstructions": 3992,
      "ĠACCOU": 3993,
      "TH": 3994,
      "more": 3995,
      "Ġinternal": 3996,
      "most": 3997,
      "Ġbring": 3998,
      "ĠJudge": 3999,
      "ĠAdditionally": 4000,
      "Ġaway": 4001,
      "Ġpoints": 4002,
      "Ġsize": 4003,
      "Ġfather": 4004,
      "ĠJohnson": 4005,
      "Ġtraining": 4006,
      "ĠLouis": 4007,
      "Ġgenerated": 4008,
      "Ġinstitution": 4009,
      "unicip": 4010,
      "Ġoffices": 4011,
      "ister": 4012,
      "ĠAdministr": 4013,
      "Ġacquire": 4014,
      "idd": 4015,
      "Ġpetitioner": 4016,
      "App": 4017,
      "Ġonce": 4018,
      "ios": 4019,
      "Ġcarri": 4020,
      "Ġcontinuing": 4021,
      "Ġallows": 4022,
      "ĠGen": 4023,
      "âĢĻâĢĻ": 4024,
      "airs": 4025,
      "ĠRich": 4026,
      "Ġresid": 4027,
      "Ġstrategy": 4028,
      "Ġgains": 4029,
      "Ġinvestig": 4030,
      "owned": 4031,
      "ĠMrs": 4032,
      "unicipal": 4033,
      "Ġweight": 4034,
      "ulative": 4035,
      "vertible": 4036,
      "Ġparticularly": 4037,
      "Ġdang": 4038,
      "iously": 4039,
      "Ġcontains": 4040,
      "Ġweighted": 4041,
      "selves": 4042,
      "nergy": 4043,
      "ique": 4044,
      "ruct": 4045,
      "ĠHere": 4046,
      "rehensive": 4047,
      "ots": 4048,
      "Ġunable": 4049,
      "CONTINUED": 4050,
      "Ġschedule": 4051,
      "Ġconstr": 4052,
      "lin": 4053,
      "ĠPet": 4054,
      "98": 4055,
      "Ġlearning": 4056,
      "ips": 4057,
      "ĠDevelopment": 4058,
      "Ġowns": 4059,
      "Ġprincipally": 4060,
      "ĠAlso": 4061,
      "Ġusually": 4062,
      "ĠCOMP": 4063,
      "come": 4064,
      "ĠSales": 4065,
      "ĠAb": 4066,
      "ounds": 4067,
      "Ġlegislative": 4068,
      "entially": 4069,
      "onduct": 4070,
      "Ġattack": 4071,
      "Ġneeded": 4072,
      "ĠAnn": 4073,
      "osition": 4074,
      "inal": 4075,
      "atch": 4076,
      "ĠWash": 4077,
      "Ġexamination": 4078,
      "ville": 4079,
      "Ġaffiliates": 4080,
      "ĠCirc": 4081,
      "Ġprosecutor": 4082,
      "Ġbrok": 4083,
      "iii": 4084,
      "Ġ($": 4085,
      "rol": 4086,
      "Ġprove": 4087,
      "Ġkind": 4088,
      "Ġfelony": 4089,
      "Ġseek": 4090,
      "ĠInternet": 4091,
      "Ġdifferences": 4092,
      "Ġconsists": 4093,
      "Ġfarm": 4094,
      "Ġexposure": 4095,
      "otal": 4096,
      "Ġhalf": 4097,
      "Ġdifference": 4098,
      "idel": 4099,
      "Ġrestrictions": 4100,
      "airment": 4101,
      "vere": 4102,
      "Ġtelevision": 4103,
      "Ġalways": 4104,
      "avel": 4105,
      "Ġelimin": 4106,
      "Ġhours": 4107,
      "Ġsomething": 4108,
      "Ġpatient": 4109,
      "Ġ1934": 4110,
      "Ġcame": 4111,
      "Ġce": 4112,
      "ening": 4113,
      "Ġsens": 4114,
      "Ġindustrial": 4115,
      "Ġrespective": 4116,
      "apter": 4117,
      "lish": 4118,
      "ATIONS": 4119,
      "Ġdecided": 4120,
      "chan": 4121,
      "ĠLt": 4122,
      "Ġcontent": 4123,
      "quis": 4124,
      "Ġey": 4125,
      "ected": 4126,
      "AP": 4127,
      "Ġtelephone": 4128,
      "95": 4129,
      "ĠNev": 4130,
      "Ġfranch": 4131,
      "ĠTax": 4132,
      "Ġmoved": 4133,
      "pecially": 4134,
      "Ġfri": 4135,
      "ĠRep": 4136,
      "missible": 4137,
      "Ġincident": 4138,
      "Ġwhom": 4139,
      "gia": 4140,
      "west": 4141,
      "Ġtemporary": 4142,
      "Ġelected": 4143,
      "icro": 4144,
      "Ġspeed": 4145,
      "ĠWorld": 4146,
      "IV": 4147,
      "ĠKing": 4148,
      "inois": 4149,
      "stance": 4150,
      "Ġcompetitors": 4151,
      "Ġconsumer": 4152,
      "lege": 4153,
      "ĠMontana": 4154,
      "ĠSw": 4155,
      "ĠWil": 4156,
      "Ġassumed": 4157,
      "Ġtypically": 4158,
      "Ġstructure": 4159,
      "ĠEnt": 4160,
      "ĠProperty": 4161,
      "Ġanticipated": 4162,
      "Ġclinical": 4163,
      "ĠSched": 4164,
      "ordinated": 4165,
      "ĠFacility": 4166,
      "ĠDa": 4167,
      "ned": 4168,
      "Ġimprovements": 4169,
      "Ġreversed": 4170,
      "ĠOf": 4171,
      "Ġcontributions": 4172,
      "Ġgrounds": 4173,
      "omas": 4174,
      "ĠSystems": 4175,
      "Ġpopulation": 4176,
      "ĠDist": 4177,
      "Ġlargest": 4178,
      "like": 4179,
      "ĠSUBSIDIARIES": 4180,
      "Ġcombined": 4181,
      "ĠBu": 4182,
      "Ġfuel": 4183,
      "ĠSuperior": 4184,
      "Ġsituation": 4185,
      "Ġparents": 4186,
      "ingu": 4187,
      "Ġexperienced": 4188,
      "Ġhot": 4189,
      "Ġtoday": 4190,
      "ĠWork": 4191,
      "ishing": 4192,
      "oph": 4193,
      "itable": 4194,
      "Ġelig": 4195,
      "OP": 4196,
      "Ġarticle": 4197,
      "emption": 4198,
      "ĠLtd": 4199,
      "Ġdistributions": 4200,
      "Ġmotor": 4201,
      "Ġpresentation": 4202,
      "Ġcenter": 4203,
      "ĠSecond": 4204,
      "Ġfactor": 4205,
      "AND": 4206,
      "ffici": 4207,
      "Ġelements": 4208,
      "Ġyoun": 4209,
      "writ": 4210,
      "ĠNon": 4211,
      "Ġoffers": 4212,
      "Ġfocus": 4213,
      "BER": 4214,
      "Ġthought": 4215,
      "Ġadvertising": 4216,
      "utions": 4217,
      "Ġoperate": 4218,
      "ĠJack": 4219,
      "Ġfraud": 4220,
      "che": 4221,
      "ivered": 4222,
      "Ġwrite": 4223,
      "ĠEnergy": 4224,
      "Ġheart": 4225,
      "thern": 4226,
      "ico": 4227,
      "Ġjob": 4228,
      "Ġdirected": 4229,
      "Ġdefault": 4230,
      "unity": 4231,
      "Ġrestruct": 4232,
      "Ġbanking": 4233,
      "Ġinvolve": 4234,
      "Ġdeveloping": 4235,
      "Ġtherap": 4236,
      "Ġsheet": 4237,
      "Ġdelay": 4238,
      "Ġ...": 4239,
      "Ġachieve": 4240,
      "Ġteac": 4241,
      "ĠIllinois": 4242,
      "Ġreturned": 4243,
      "Ġtechnical": 4244,
      "Ġsites": 4245,
      "Ġsexual": 4246,
      "ayment": 4247,
      "Ġrelease": 4248,
      "Ġlate": 4249,
      "Ġenough": 4250,
      "Ġwind": 4251,
      "Ġnothing": 4252,
      "back": 4253,
      "rew": 4254,
      "ging": 4255,
      "ĠAust": 4256,
      "Ġquarterly": 4257,
      "Ġdivision": 4258,
      "ota": 4259,
      "Ġtimely": 4260,
      "Ġdoing": 4261,
      "Ġmerger": 4262,
      "ĠDelaware": 4263,
      "SION": 4264,
      "rine": 4265,
      "Ġlocation": 4266,
      "ĠChairman": 4267,
      "Ġagent": 4268,
      "iding": 4269,
      "riz": 4270,
      "ĠOp": 4271,
      "enty": 4272,
      "Ġspecies": 4273,
      "ĠSecurity": 4274,
      "emper": 4275,
      "URT": 4276,
      "Ġstra": 4277,
      "97": 4278,
      "ilt": 4279,
      "Ġmethods": 4280,
      "isable": 4281,
      "Ġimproper": 4282,
      "Ġdeemed": 4283,
      "Ġ2002": 4284,
      "ference": 4285,
      "Ġrole": 4286,
      "ians": 4287,
      "Ġ58": 4288,
      "ĠSH": 4289,
      "Ġhimself": 4290,
      "Ġdepreciation": 4291,
      "Ġofficial": 4292,
      "Ġduly": 4293,
      "Ġespecially": 4294,
      "Ġinterpretation": 4295,
      "Ġstudies": 4296,
      "Ex": 4297,
      "Ġventure": 4298,
      "Ġinvolving": 4299,
      "ĠGerm": 4300,
      "ĠGod": 4301,
      "Ġpreced": 4302,
      "Ġagencies": 4303,
      "ĠPurchase": 4304,
      "ression": 4305,
      "Ġgroups": 4306,
      "ĠON": 4307,
      "Ġdecree": 4308,
      "mark": 4309,
      "ĠAppell": 4310,
      "ĠChar": 4311,
      "Ġ65": 4312,
      "sey": 4313,
      "Ġinjuries": 4314,
      "Ġdecline": 4315,
      "Ġuseful": 4316,
      "Ġresidential": 4317,
      "Ġflo": 4318,
      "Ġordered": 4319,
      "ĠGeorgia": 4320,
      "lant": 4321,
      "ĠLong": 4322,
      "Ġshowing": 4323,
      "ĠAny": 4324,
      "Ġrend": 4325,
      "Ġcells": 4326,
      "Ġperman": 4327,
      "Ġadversely": 4328,
      "Ġprocedure": 4329,
      "Ġtechnologies": 4330,
      "incorporated": 4331,
      "Ġpropri": 4332,
      "Ġliving": 4333,
      "Ġseven": 4334,
      "ancell": 4335,
      "Ġpresence": 4336,
      "ociety": 4337,
      "Ġconstruct": 4338,
      "aith": 4339,
      "ĠACCOUNT": 4340,
      "ĠCanada": 4341,
      "Ġ1985": 4342,
      "Ġleased": 4343,
      "ĠCOURT": 4344,
      "raw": 4345,
      "Ġtheory": 4346,
      "ĠMill": 4347,
      "enge": 4348,
      "Ġsubs": 4349,
      "ĠPower": 4350,
      "iary": 4351,
      "ĠDo": 4352,
      "Ġreplace": 4353,
      "Ġlab": 4354,
      "Ġensure": 4355,
      "Ġgave": 4356,
      "usband": 4357,
      "Ġstraight": 4358,
      "Ġdisch": 4359,
      "izations": 4360,
      "Ġ75": 4361,
      "Ġ55": 4362,
      "Ġrelationships": 4363,
      "Ġunf": 4364,
      "Ġfairly": 4365,
      "issipp": 4366,
      "ĠResearch": 4367,
      "Ġpatent": 4368,
      "ĠJr": 4369,
      "Ġdeed": 4370,
      "Ġdest": 4371,
      "Ġuncertain": 4372,
      "Ġwriting": 4373,
      "Ġcomply": 4374,
      "Ġobjection": 4375,
      "Ġdocuments": 4376,
      "issippi": 4377,
      "ĠEl": 4378,
      "ĠLife": 4379,
      "etic": 4380,
      "ength": 4381,
      "Ġrestaur": 4382,
      "Ġtext": 4383,
      "Ġsupported": 4384,
      "Ġste": 4385,
      "ched": 4386,
      "Ġpractices": 4387,
      "de": 4388,
      "Ġseen": 4389,
      "Ġeight": 4390,
      "iced": 4391,
      "ĠExp": 4392,
      "Ġmanufacturers": 4393,
      "outhern": 4394,
      "Ġcut": 4395,
      "fe": 4396,
      "Ġpers": 4397,
      "Ġordin": 4398,
      "//": 4399,
      "Ġtim": 4400,
      "Ġseries": 4401,
      "ĠSchool": 4402,
      "ĠHis": 4403,
      "Ġunderstanding": 4404,
      "Ġcoven": 4405,
      "urs": 4406,
      "Ġexpans": 4407,
      "ĠPRO": 4408,
      "ĠMississippi": 4409,
      "Ġleading": 4410,
      "ĠTw": 4411,
      "ĠMortgage": 4412,
      "ĠLegisl": 4413,
      "Ġassumptions": 4414,
      "Ġexpects": 4415,
      "Ġdissent": 4416,
      "Ġchanged": 4417,
      "Ġarrangements": 4418,
      "Ġvideo": 4419,
      "Ġsuccessful": 4420,
      "ww": 4421,
      "Ġchemical": 4422,
      ".'": 4423,
      "istics": 4424,
      "RI": 4425,
      "ishes": 4426,
      "Ġlimits": 4427,
      "aves": 4428,
      "aming": 4429,
      "OLD": 4430,
      "Ġdistin": 4431,
      "Ġnumerous": 4432,
      "Ġautomobile": 4433,
      "Ġcopy": 4434,
      "Ġrecently": 4435,
      "Ġterminated": 4436,
      "Ġbreach": 4437,
      "Ġadvant": 4438,
      "ĠNe": 4439,
      "Ġmor": 4440,
      "ĠProf": 4441,
      "ĠAf": 4442,
      "including": 4443,
      "nal": 4444,
      "Ġconting": 4445,
      "Ġintroduced": 4446,
      "Ġcurrency": 4447,
      "Ġdiagn": 4448,
      "Ġdelivered": 4449,
      "ĠHoldings": 4450,
      "ĠVir": 4451,
      "ĠPac": 4452,
      "Ġyield": 4453,
      "ĠMat": 4454,
      "Ġdividend": 4455,
      "AGE": 4456,
      "ona": 4457,
      "amily": 4458,
      "Ġ/": 4459,
      "Ġvote": 4460,
      "Ġsaw": 4461,
      "Ġessential": 4462,
      "ai": 4463,
      "Ġamend": 4464,
      "Ġbill": 4465,
      "Ġmaterially": 4466,
      "ribute": 4467,
      "ĠIS": 4468,
      "ĠThomas": 4469,
      "ĠInter": 4470,
      "onn": 4471,
      "VE": 4472,
      "lear": 4473,
      "Ġroom": 4474,
      "Ġrepresents": 4475,
      "Ġsurv": 4476,
      "ĠPat": 4477,
      "Ġsenior": 4478,
      "Ġconver": 4479,
      "01": 4480,
      "Ġconvicted": 4481,
      "Ġabsence": 4482,
      "Ġmal": 4483,
      "Ġsure": 4484,
      "annel": 4485,
      "Ġapparent": 4486,
      "ĠCost": 4487,
      "Ġpsych": 4488,
      "Ġmonitor": 4489,
      "erted": 4490,
      "Ġexpand": 4491,
      "\",": 4492,
      "Ġenhance": 4493,
      "Ġcancer": 4494,
      "Ġowners": 4495,
      "Ġpark": 4496,
      "Ġpenalty": 4497,
      "umulative": 4498,
      "ĠBrit": 4499,
      "Ġthereafter": 4500,
      "ĠRespondent": 4501,
      "ircraft": 4502,
      "Ġprejudice": 4503,
      "Ġinsurer": 4504,
      "retary": 4505,
      "ĠTotal": 4506,
      "Ġoperates": 4507,
      "Ġresol": 4508,
      "Ġcard": 4509,
      "hood": 4510,
      "QU": 4511,
      "room": 4512,
      "Ġpolitical": 4513,
      "ĠMot": 4514,
      "ĠWashington": 4515,
      "ĠTre": 4516,
      "ebted": 4517,
      "Ġmix": 4518,
      "Ġqualified": 4519,
      "Ġadoption": 4520,
      "head": 4521,
      "Ġhistorical": 4522,
      "Ġformed": 4523,
      "Ġcapitalized": 4524,
      "Ġprosecution": 4525,
      "Ġgiving": 4526,
      "ĠRevenue": 4527,
      "Ġelection": 4528,
      "ĠBased": 4529,
      "apan": 4530,
      "ĠData": 4531,
      "ĠDis": 4532,
      "Ġselected": 4533,
      "DI": 4534,
      "Ġconversion": 4535,
      "Ġequivalents": 4536,
      "Ġseason": 4537,
      "ows": 4538,
      "Ġdisclosure": 4539,
      "Ġrespects": 4540,
      "Ġaccomp": 4541,
      "Ġconcent": 4542,
      "Ġemerg": 4543,
      "ĠAriz": 4544,
      "will": 4545,
      "ĠBrown": 4546,
      "Ġcompr": 4547,
      "Ġreflected": 4548,
      "Ġever": 4549,
      "Ġarising": 4550,
      "oman": 4551,
      "oke": 4552,
      "emic": 4553,
      "ĠColor": 4554,
      "Ġfollowed": 4555,
      "ĠAnal": 4556,
      "mits": 4557,
      "Ġ2003": 4558,
      "ĠSan": 4559,
      "85": 4560,
      "Ġthemselves": 4561,
      "Ġreverse": 4562,
      "wood": 4563,
      "ĠCor": 4564,
      "ĠRo": 4565,
      "ĠProducts": 4566,
      "Ġstorage": 4567,
      "Ġcontext": 4568,
      "pite": 4569,
      "Ġexercisable": 4570,
      "ĠImp": 4571,
      "Ġleave": 4572,
      "Ġworkers": 4573,
      "Ġcheck": 4574,
      "Ġwaste": 4575,
      "Ġsupporting": 4576,
      "ades": 4577,
      "Ġvaluation": 4578,
      "qual": 4579,
      "Ġsubd": 4580,
      "Ġearned": 4581,
      "Ġchallenge": 4582,
      "Ġlog": 4583,
      "ographic": 4584,
      "Ġfinance": 4585,
      "Ġwithd": 4586,
      "inn": 4587,
      "Ġopportunities": 4588,
      "uth": 4589,
      "liers": 4590,
      "Ġconcept": 4591,
      "Ġpositions": 4592,
      "Ġoperated": 4593,
      "ĠCurrent": 4594,
      "Ġrequiring": 4595,
      "ĠAL": 4596,
      "Ġinn": 4597,
      "Ġrang": 4598,
      "gl": 4599,
      "Ġlink": 4600,
      "ĠCircuit": 4601,
      "Ġconstitute": 4602,
      "Ġretirement": 4603,
      "Ġ1984": 4604,
      "aily": 4605,
      "Ġrout": 4606,
      "agraph": 4607,
      "Ġvary": 4608,
      "ĠGas": 4609,
      "ĠRights": 4610,
      "Ġtemper": 4611,
      "ĠSubsidi": 4612,
      "Ġdepartment": 4613,
      "Ġquant": 4614,
      "arters": 4615,
      "Ġreached": 4616,
      "ĠMany": 4617,
      "ĠAir": 4618,
      "Ġ--------": 4619,
      "Ġrecon": 4620,
      "Ġtrading": 4621,
      "Ġnegative": 4622,
      "ĠSte": 4623,
      "Ġallocated": 4624,
      "ĠBlack": 4625,
      "Ġ\"[": 4626,
      "Ġ,": 4627,
      "Ġsuperior": 4628,
      "ĠMcC": 4629,
      "ifications": 4630,
      "field": 4631,
      "Ġdevices": 4632,
      "Ġdiscovery": 4633,
      "Ġaccum": 4634,
      "ung": 4635,
      "Ġesc": 4636,
      "grav": 4637,
      "ĠAcquis": 4638,
      "Ġexhibit": 4639,
      "idav": 4640,
      "Ġdenying": 4641,
      "Ġmention": 4642,
      "Ġdenial": 4643,
      "het": 4644,
      "Ġrap": 4645,
      "ĠJer": 4646,
      "Ġgun": 4647,
      "Ġcontrary": 4648,
      "ago": 4649,
      "Ġassistance": 4650,
      "Ġur": 4651,
      "ousing": 4652,
      "Ġserious": 4653,
      "Ġways": 4654,
      "Ġclaimed": 4655,
      "ebtedness": 4656,
      "owers": 4657,
      "Ġelse": 4658,
      "ĠProgram": 4659,
      "rate": 4660,
      "79": 4661,
      "riage": 4662,
      "Ġdismissed": 4663,
      "Ġgranting": 4664,
      "Ġelement": 4665,
      "Ġprospect": 4666,
      "aker": 4667,
      "Ġaccur": 4668,
      "orneys": 4669,
      "ĠJapan": 4670,
      "Ġpurchases": 4671,
      "Ġmist": 4672,
      "ls": 4673,
      "itiz": 4674,
      "Ġnecessarily": 4675,
      "Ġinstead": 4676,
      "ĠWilliams": 4677,
      "erences": 4678,
      "Ġdiscip": 4679,
      "Ġlive": 4680,
      "Ġdepend": 4681,
      "ĠMarket": 4682,
      "Ġreserve": 4683,
      "igned": 4684,
      "ĠMoreover": 4685,
      "Ġsupplement": 4686,
      "Ġbad": 4687,
      "reng": 4688,
      "Ġexpansion": 4689,
      "action": 4690,
      "ĠMet": 4691,
      "Ġlarger": 4692,
      "Ġmunicipal": 4693,
      "Ġ|": 4694,
      "Ġreve": 4695,
      "Ġpublished": 4696,
      "Ġinvestigation": 4697,
      "ĠREL": 4698,
      "Ġdeclared": 4699,
      "Ġimpairment": 4700,
      "Ġopt": 4701,
      "aded": 4702,
      "ĠProxy": 4703,
      "Ġ$.": 4704,
      "NERS": 4705,
      "Ġheard": 4706,
      "Th": 4707,
      "Ġlay": 4708,
      "Ġidentify": 4709,
      "Ġfaith": 4710,
      "Ġdependent": 4711,
      "Ġextra": 4712,
      "ĠStreet": 4713,
      "where": 4714,
      "Ġuncon": 4715,
      "ĠJones": 4716,
      "Ġmisc": 4717,
      "EF": 4718,
      "Ġassault": 4719,
      "uties": 4720,
      "Ġexplained": 4721,
      "Ġviolated": 4722,
      "AB": 4723,
      "Ġspe": 4724,
      "log": 4725,
      "Ġmechan": 4726,
      "Ġdoctrine": 4727,
      "cont": 4728,
      "Ġsuppliers": 4729,
      "Ġawarded": 4730,
      "Ġprepared": 4731,
      "Ġrecommend": 4732,
      "Ġfront": 4733,
      "Ġbound": 4734,
      "ĠUnion": 4735,
      "ĠAM": 4736,
      "EP": 4737,
      "aser": 4738,
      "ches": 4739,
      "Ġsentencing": 4740,
      "Ġtraditional": 4741,
      "Ġhusband": 4742,
      "Ġpan": 4743,
      "Ġneither": 4744,
      "ipt": 4745,
      "ĠPenn": 4746,
      "ĠDavid": 4747,
      "Ġstay": 4748,
      "Ġemph": 4749,
      "Ġroy": 4750,
      "know": 4751,
      "Ġlawsu": 4752,
      "Ġsympt": 4753,
      "Ġmerch": 4754,
      "ĠAN": 4755,
      "Ġordinary": 4756,
      "Ġattract": 4757,
      "Ġauthorities": 4758,
      "ĠCOR": 4759,
      "ĠMedic": 4760,
      "Ġyoung": 4761,
      "ĠMost": 4762,
      "ĠCom": 4763,
      "ulations": 4764,
      "ĠOffice": 4765,
      "ĠHigh": 4766,
      "Miss": 4767,
      "Ġaffidav": 4768,
      "Ġexecuted": 4769,
      "Ġdefinition": 4770,
      "laim": 4771,
      "ush": 4772,
      "we": 4773,
      "Ġclients": 4774,
      "mer": 4775,
      "abama": 4776,
      "Ġforma": 4777,
      "Ġcarried": 4778,
      "Ġfavorable": 4779,
      "Ġvoting": 4780,
      "coh": 4781,
      "ĠAfric": 4782,
      "Ġdeduct": 4783,
      "ĠStockholders": 4784,
      "RA": 4785,
      "Ġdispl": 4786,
      "Ġpip": 4787,
      "cohol": 4788,
      "Ġ68": 4789,
      "Ġ123": 4790,
      "section": 4791,
      "Ġtarget": 4792,
      "ĠMex": 4793,
      "Ġ99": 4794,
      "Ġsafe": 4795,
      "Ġexclusive": 4796,
      "Ġmit": 4797,
      "Ġcontinues": 4798,
      "Ġrein": 4799,
      "Ġpages": 4800,
      "Ġsurface": 4801,
      "Ġextended": 4802,
      "Ġcat": 4803,
      "Ġpet": 4804,
      "Ġbrain": 4805,
      "ster": 4806,
      "Ġtort": 4807,
      "ĠEnd": 4808,
      "Ġclean": 4809,
      "Ġscope": 4810,
      "ĠBal": 4811,
      "Ġderived": 4812,
      "Ġforms": 4813,
      "Ġattention": 4814,
      "ĠBenef": 4815,
      "ĠAlabama": 4816,
      "Ġplain": 4817,
      "Ġcontention": 4818,
      "ĠReal": 4819,
      "van": 4820,
      "ĠDep": 4821,
      "Ġlength": 4822,
      "ĠEquity": 4823,
      "Ġreimburse": 4824,
      "bon": 4825,
      "Ġ1983": 4826,
      "put": 4827,
      "raska": 4828,
      "Ġinstrument": 4829,
      "Ġstreng": 4830,
      "Ġclassified": 4831,
      "Ġtown": 4832,
      "Ġteam": 4833,
      "Ġsound": 4834,
      "osis": 4835,
      "Ġtend": 4836,
      "ĠProperties": 4837,
      "aughter": 4838,
      "Ġintends": 4839,
      "Ġeligible": 4840,
      "rie": 4841,
      "Ġpressure": 4842,
      "ĠLegislature": 4843,
      "Ġstop": 4844,
      "ĠColorado": 4845,
      "Ġappellants": 4846,
      "ĠKan": 4847,
      "Ġdeb": 4848,
      "Ġcollection": 4849,
      "def": 4850,
      "Ġ85": 4851,
      "Ġaggrav": 4852,
      "Ġcritical": 4853,
      "Ġalmost": 4854,
      "ĠMary": 4855,
      "Ġlocations": 4856,
      "Ġdisposition": 4857,
      "eration": 4858,
      "Ġtrend": 4859,
      "Ġcomprehensive": 4860,
      "alties": 4861,
      "YS": 4862,
      "Ġeffort": 4863,
      "Ġcontribution": 4864,
      "amination": 4865,
      "Ġtherein": 4866,
      "Ġitem": 4867,
      "Ġentity": 4868,
      "itch": 4869,
      "Ġmerely": 4870,
      "ael": 4871,
      "Ġcomplet": 4872,
      "CS": 4873,
      "ART": 4874,
      "Ġtransportation": 4875,
      "ĠNebraska": 4876,
      "active": 4877,
      "Ġfunding": 4878,
      "communications": 4879,
      "Ġtruck": 4880,
      "Ġenj": 4881,
      "utual": 4882,
      "ounced": 4883,
      "ĠAnt": 4884,
      "Ġcauses": 4885,
      "Ġrendered": 4886,
      "Ġassigned": 4887,
      "IM": 4888,
      "ician": 4889,
      "fficiency": 4890,
      "ĠShareholders": 4891,
      "Ġengineering": 4892,
      "Ġindebtedness": 4893,
      "Ġ59": 4894,
      "Ġdisability": 4895,
      "Ġprin": 4896,
      "Ġdispute": 4897,
      "ĠPort": 4898,
      "ĠQuarter": 4899,
      "ĠGreen": 4900,
      "Ġrealized": 4901,
      "comp": 4902,
      "Ġappointed": 4903,
      "Ġaspect": 4904,
      "aches": 4905,
      "Ġconj": 4906,
      "Ġproduc": 4907,
      "Ġtraffic": 4908,
      "itary": 4909,
      "UC": 4910,
      "erk": 4911,
      "Ġexistence": 4912,
      "Ġrepresenting": 4913,
      "Ġfluct": 4914,
      "Ġorganization": 4915,
      "bery": 4916,
      "Ġcompens": 4917,
      "rary": 4918,
      "Ġstation": 4919,
      "ĠWhe": 4920,
      "oe": 4921,
      "ĠRES": 4922,
      "Ġoccas": 4923,
      "Ġprohib": 4924,
      "amb": 4925,
      "It": 4926,
      "Ġappoint": 4927,
      "Ġsimple": 4928,
      "Ġbuildings": 4929,
      "Ġ2004": 4930,
      "Ġnight": 4931,
      "Ġexpire": 4932,
      "Ġarri": 4933,
      "ĠMart": 4934,
      "Ġprogress": 4935,
      "Ġentities": 4936,
      "Ġproviders": 4937,
      "Ġunp": 4938,
      "Ġadjustments": 4939,
      "Ġdiffer": 4940,
      "Ġtotaled": 4941,
      "Ġoral": 4942,
      "ĠResults": 4943,
      "igan": 4944,
      "angible": 4945,
      "Ġprocesses": 4946,
      "Ġcombination": 4947,
      "Ġfunctions": 4948,
      "Ġquick": 4949,
      "âĢľ": 4950,
      "ĠLand": 4951,
      "Ġsense": 4952,
      "Ġactive": 4953,
      "Ġpattern": 4954,
      "ĠAssociates": 4955,
      "TM": 4956,
      "://": 4957,
      "iate": 4958,
      "ĠEstate": 4959,
      "Ġpartially": 4960,
      "Ġsummar": 4961,
      "Ġliable": 4962,
      "Ġcentury": 4963,
      "Ġwithdraw": 4964,
      "Ġbehavior": 4965,
      "Ġrestructuring": 4966,
      "Ġblack": 4967,
      "emark": 4968,
      "ĠRiver": 4969,
      "Ġsubsequently": 4970,
      "Ġlegislation": 4971,
      "Ġcommunications": 4972,
      "ĠUpon": 4973,
      "Ġcomponent": 4974,
      "ENT": 4975,
      "actions": 4976,
      "Ġinfluence": 4977,
      "Ġentry": 4978,
      "aced": 4979,
      "efore": 4980,
      "Ġtoward": 4981,
      "care": 4982,
      "Ġduties": 4983,
      "ĠFile": 4984,
      "Ġproprietary": 4985,
      "ĠCH": 4986,
      "Ġexpressed": 4987,
      "road": 4988,
      "....": 4989,
      "ouncil": 4990,
      "Ġexercised": 4991,
      "ludes": 4992,
      "ĠEven": 4993,
      "ĠRed": 4994,
      "Ġconformity": 4995,
      "Ġthereby": 4996,
      "Ġmargin": 4997,
      "ĠJJ": 4998,
      "Ġ57": 4999,
      "Ġreading": 5000,
      "Ġextre": 5001,
      "ishment": 5002,
      "ĠInvestment": 5003,
      "Ġcontributed": 5004,
      "under": 5005,
      "istic": 5006,
      "Ġglobal": 5007,
      "ĠIndiana": 5008,
      "aces": 5009,
      "Ġcited": 5010,
      "Ġpatents": 5011,
      "Ġobserved": 5012,
      "Ġbecomes": 5013,
      "ĠRichard": 5014,
      "Ġbalances": 5015,
      "ston": 5016,
      "Ġ32": 5017,
      "ĠPaul": 5018,
      "Ġvend": 5019,
      "Ġrapid": 5020,
      "Ġaircraft": 5021,
      "ĠEuropean": 5022,
      "ĠTele": 5023,
      "Ġapplies": 5024,
      "Ġbeneficial": 5025,
      "ARY": 5026,
      "Ġreleased": 5027,
      "yl": 5028,
      "ĠLease": 5029,
      "Ġexec": 5030,
      "Ġencour": 5031,
      "pper": 5032,
      "well": 5033,
      "ĠBoth": 5034,
      "Ġintention": 5035,
      "Ġminim": 5036,
      "ĠAnalysis": 5037,
      "Ġbelieved": 5038,
      "Ġdefect": 5039,
      "idelines": 5040,
      "EAR": 5041,
      "Ġmaintains": 5042,
      "Ġdisclosures": 5043,
      "Ġinqu": 5044,
      "ĠSum": 5045,
      "Ġdaily": 5046,
      "bert": 5047,
      "Ġpositive": 5048,
      "prise": 5049,
      "ĠEast": 5050,
      "Ġmass": 5051,
      "ĠâĢľ[": 5052,
      "Ġled": 5053,
      "employ": 5054,
      "ground": 5055,
      "respond": 5056,
      "Ġjoined": 5057,
      "Ġjustice": 5058,
      "Ġchannel": 5059,
      "Ġregion": 5060,
      "ĠThose": 5061,
      "Ġallegations": 5062,
      "missions": 5063,
      "Ġcompletion": 5064,
      "Ġcenters": 5065,
      "Ġadjusted": 5066,
      "ĠBur": 5067,
      "oles": 5068,
      "Ġtaxable": 5069,
      "ĠSecretary": 5070,
      "Ġscheduled": 5071,
      "Ġsustained": 5072,
      "ĠShares": 5073,
      "Ġreflects": 5074,
      "Ġelectronic": 5075,
      "ĠFDA": 5076,
      "Ġrede": 5077,
      "Ġcentral": 5078,
      "Ġalone": 5079,
      "Ġtreated": 5080,
      "OW": 5081,
      "Ġsymptoms": 5082,
      "Ġ2010": 5083,
      "Ġrevolving": 5084,
      "Ġtwenty": 5085,
      "Ġdrugs": 5086,
      "istant": 5087,
      "Ġhereby": 5088,
      "Ġarch": 5089,
      "Ġcontractual": 5090,
      "ĠNor": 5091,
      "ream": 5092,
      "Ġreceipt": 5093,
      "||": 5094,
      "300": 5095,
      "Ġworks": 5096,
      "Ġknew": 5097,
      "Ġresolution": 5098,
      "Ġconsolid": 5099,
      "Ġallowing": 5100,
      "Ġdistributed": 5101,
      "Ġtell": 5102,
      "itting": 5103,
      "ĠMCA": 5104,
      "empl": 5105,
      "usal": 5106,
      "Ġ2005": 5107,
      "Ġremains": 5108,
      "Ġblock": 5109,
      "Ġinformed": 5110,
      "ĠCir": 5111,
      "astic": 5112,
      "Ġpremises": 5113,
      "Ġprivile": 5114,
      "Ġdeclar": 5115,
      "ĠJe": 5116,
      "Ġcommitment": 5117,
      "losure": 5118,
      "ae": 5119,
      "ĠFarm": 5120,
      "rick": 5121,
      "Ġsil": 5122,
      "hern": 5123,
      "Ġhed": 5124,
      "iddle": 5125,
      "Ġadjustment": 5126,
      "Ġdeliver": 5127,
      "Ġindicate": 5128,
      "iable": 5129,
      "Ġadvanced": 5130,
      "Ġmanaged": 5131,
      "Ġanaly": 5132,
      "ĠHol": 5133,
      "ĠVirgin": 5134,
      "etts": 5135,
      "amples": 5136,
      "Ġremand": 5137,
      "Ġweeks": 5138,
      "Ġusers": 5139,
      "Ġeffectively": 5140,
      "Ġemb": 5141,
      "Ġpermanent": 5142,
      "ĠMs": 5143,
      "Ġgrand": 5144,
      "Ġenforcement": 5145,
      "Ġtests": 5146,
      "Ġadministration": 5147,
      "ma": 5148,
      "ounting": 5149,
      "ĠConnect": 5150,
      "Ġcamp": 5151,
      "ĠMAN": 5152,
      "ĠFiscal": 5153,
      "Ġavailability": 5154,
      "Ġ1980": 5155,
      "Ġregular": 5156,
      "ĠMor": 5157,
      "ĠAmended": 5158,
      "ĠCarol": 5159,
      "Acc": 5160,
      "Ġappealed": 5161,
      "Ġid": 5162,
      "Ġrestricted": 5163,
      "Ġacknow": 5164,
      "lands": 5165,
      "otional": 5166,
      "Ġprison": 5167,
      "Ġsegments": 5168,
      "umber": 5169,
      "Ġter": 5170,
      "Ġvirt": 5171,
      "Ġprobation": 5172,
      "Ġsan": 5173,
      "Ġ2007": 5174,
      "imately": 5175,
      "Ġretained": 5176,
      "enth": 5177,
      "ĠAff": 5178,
      "Ġ2008": 5179,
      "sembly": 5180,
      "ĠFinally": 5181,
      "Ġevaluating": 5182,
      "Ġ2006": 5183,
      "Ġestimate": 5184,
      "istent": 5185,
      "Ġfeatures": 5186,
      "ournal": 5187,
      "ze": 5188,
      "ulate": 5189,
      "Ġbonds": 5190,
      "Ġju": 5191,
      "ĠContract": 5192,
      "ĠJackson": 5193,
      "ĠEffective": 5194,
      "ĠCertificate": 5195,
      "Ġmaintained": 5196,
      "Ġdesignated": 5197,
      "Ġcou": 5198,
      "order": 5199,
      "ĠStud": 5200,
      "Ġrepe": 5201,
      "ĠEnglish": 5202,
      "uing": 5203,
      "Ġmiles": 5204,
      "ĠPacific": 5205,
      "iber": 5206,
      "Ġ2012": 5207,
      "ĠSal": 5208,
      "ifest": 5209,
      "Ġgovernmental": 5210,
      "Ġpret": 5211,
      "essee": 5212,
      "Ġsalary": 5213,
      "ĠDon": 5214,
      "TOR": 5215,
      "Ġconjunction": 5216,
      "ellees": 5217,
      "Ġ34": 5218,
      "Ġresearc": 5219,
      "avis": 5220,
      "Ġnut": 5221,
      "Ġindemn": 5222,
      "Ġreceivables": 5223,
      "Ġforegoing": 5224,
      "Ġoverr": 5225,
      "ĠAla": 5226,
      "pir": 5227,
      "Ġattempted": 5228,
      "Ġskills": 5229,
      "Ġholds": 5230,
      "Ġtransferred": 5231,
      "Ġrecognize": 5232,
      "Ġalcohol": 5233,
      "Ġvo": 5234,
      "ĠRestated": 5235,
      "Ġerrone": 5236,
      "ĠHaw": 5237,
      "Ġutility": 5238,
      "Ġ2009": 5239,
      "paration": 5240,
      "Ġrobbery": 5241,
      "ĠFCC": 5242,
      "Ġmotions": 5243,
      "aine": 5244,
      "iles": 5245,
      "Ġclause": 5246,
      "Ġmaturities": 5247,
      "oning": 5248,
      "Ġcommenced": 5249,
      "ĠUnits": 5250,
      "ĠCivil": 5251,
      "omin": 5252,
      "Ġ36": 5253,
      "Ġrelig": 5254,
      "Ġheav": 5255,
      "ĠREPOR": 5256,
      "Ġmanufacture": 5257,
      "ruptcy": 5258,
      "ĠOh": 5259,
      "ĠChic": 5260,
      "ĠGovernment": 5261,
      "orthern": 5262,
      "Ġimproved": 5263,
      "Ġcontrolled": 5264,
      "Al": 5265,
      "na": 5266,
      "ĠWater": 5267,
      "Ġregistrant": 5268,
      "ha": 5269,
      "Ġmerit": 5270,
      "Ġlesser": 5271,
      "Ġdigital": 5272,
      "Ġadvance": 5273,
      "alls": 5274,
      "Ġcommitments": 5275,
      "Ġlost": 5276,
      "Ġfeed": 5277,
      "Ġstory": 5278,
      "Ġregistered": 5279,
      "Ġrelatively": 5280,
      "Ġmail": 5281,
      "Ġ2011": 5282,
      "ĠCas": 5283,
      "ĠHer": 5284,
      "ĠMon": 5285,
      "Ġprobable": 5286,
      "ĠMerger": 5287,
      "Ġinterc": 5288,
      "Ġdescrib": 5289,
      "Ġstress": 5290,
      "Ġequivalent": 5291,
      "ĠAcquisition": 5292,
      "rim": 5293,
      "ple": 5294,
      "Ġhaz": 5295,
      "ĠTerm": 5296,
      "Ġsoil": 5297,
      "rep": 5298,
      "igu": 5299,
      "party": 5300,
      "Ġ`": 5301,
      "rees": 5302,
      "Ġraise": 5303,
      "Ġpension": 5304,
      "ĠMichael": 5305,
      "Ġcomes": 5306,
      "ocation": 5307,
      "89": 5308,
      "Ġinstant": 5309,
      "Ġregional": 5310,
      "iture": 5311,
      "earing": 5312,
      "ĠOPER": 5313,
      "hem": 5314,
      "long": 5315,
      "Ġdisag": 5316,
      "icut": 5317,
      "achus": 5318,
      "Ġadmission": 5319,
      "ĠHist": 5320,
      "Ġconsisted": 5321,
      "Ġmanage": 5322,
      "87": 5323,
      "Ġfailing": 5324,
      "ĠFurthermore": 5325,
      "Ġwire": 5326,
      "Ġwest": 5327,
      "Ġdevice": 5328,
      "Ġstudent": 5329,
      "cript": 5330,
      "Ġextreme": 5331,
      "OCK": 5332,
      "ĠMichigan": 5333,
      "tr": 5334,
      "Ġstanding": 5335,
      "Ġorganizations": 5336,
      "Ġnames": 5337,
      "ANS": 5338,
      "Ġattorneys": 5339,
      "Ġlicensed": 5340,
      "ĠIm": 5341,
      "alse": 5342,
      "ificates": 5343,
      "ĠEnvironment": 5344,
      "achusetts": 5345,
      "vision": 5346,
      "Ġtried": 5347,
      "inter": 5348,
      "Ġlicenses": 5349,
      "oses": 5350,
      "aching": 5351,
      "amin": 5352,
      "ĠPR": 5353,
      "Ġbuilt": 5354,
      "Ġdiscovered": 5355,
      "Ġmedia": 5356,
      "Ġremedy": 5357,
      "Ġbed": 5358,
      "Ġ95": 5359,
      "men": 5360,
      "leep": 5361,
      "Ġdead": 5362,
      "Ġcolor": 5363,
      "Ġcumulative": 5364,
      "Ġmisconduct": 5365,
      "ĠDen": 5366,
      "ĠIncentive": 5367,
      "aut": 5368,
      "ĠSupplement": 5369,
      "ps": 5370,
      "Ġaccused": 5371,
      "ĠAustral": 5372,
      "Ġtools": 5373,
      "Ġfat": 5374,
      "Ġremoved": 5375,
      "ĠRules": 5376,
      "Ġscience": 5377,
      "Ġexists": 5378,
      "Ġinvolves": 5379,
      "Ġremained": 5380,
      "Ġtransl": 5381,
      "Ġpath": 5382,
      "rove": 5383,
      ")).": 5384,
      "Ġletters": 5385,
      "ĠChicago": 5386,
      "Ġflu": 5387,
      "Ġrefused": 5388,
      "SC": 5389,
      "Ġcyc": 5390,
      "Ġdecide": 5391,
      "Ġreally": 5392,
      "ĠAssets": 5393,
      "ĠMassachusetts": 5394,
      "Ġphase": 5395,
      "Ġindirect": 5396,
      "ĠMedical": 5397,
      "400": 5398,
      "orse": 5399,
      "Ġwhite": 5400,
      "Ġasserted": 5401,
      "ĠFrank": 5402,
      "Ġson": 5403,
      "Ġconfirm": 5404,
      "ĠTR": 5405,
      "ĠArticle": 5406,
      "ĠDiscuss": 5407,
      "Ġregistration": 5408,
      "Ġenacted": 5409,
      "Ġ42": 5410,
      "Ġmill": 5411,
      "Ġsubstance": 5412,
      "ĠWeb": 5413,
      "ĠHome": 5414,
      "ese": 5415,
      "ĠCounsel": 5416,
      "Ġgrowing": 5417,
      "ximately": 5418,
      "Ġsustain": 5419,
      "Ġreviewed": 5420,
      "Ġinspect": 5421,
      "ĠMAR": 5422,
      "Ġtransmission": 5423,
      "elve": 5424,
      "Ġ46": 5425,
      "Ġfactual": 5426,
      "Ġmort": 5427,
      "Ġsolely": 5428,
      "Accounting": 5429,
      "TIVE": 5430,
      "Ġgoods": 5431,
      "illeg": 5432,
      "See": 5433,
      "Ġaudited": 5434,
      "Ġrecognition": 5435,
      "Ġfig": 5436,
      "Ġanything": 5437,
      "==": 5438,
      "ĠCER": 5439,
      "Ġbreak": 5440,
      "eria": 5441,
      "hab": 5442,
      "TED": 5443,
      "ĠREG": 5444,
      "Ġgl": 5445,
      "ĠKansas": 5446,
      "ĠEmployment": 5447,
      "**": 5448,
      "Ġapartment": 5449,
      "Ġtrack": 5450,
      "Ġcorrespond": 5451,
      "Ġlimitation": 5452,
      "ocal": 5453,
      "Ġworldwide": 5454,
      "05": 5455,
      "Ġsevere": 5456,
      "Ġpricing": 5457,
      "SA": 5458,
      "Ġoutcome": 5459,
      "ĠAtlant": 5460,
      "riff": 5461,
      "kins": 5462,
      "Ġpermits": 5463,
      "Ġderiv": 5464,
      "ĠVirginia": 5465,
      "iet": 5466,
      "icians": 5467,
      "Ġpassed": 5468,
      "ani": 5469,
      "oming": 5470,
      "Ġnation": 5471,
      "ĠKent": 5472,
      "Ġrestrict": 5473,
      "do": 5474,
      "attle": 5475,
      "Ġminutes": 5476,
      "Ġpharm": 5477,
      "Ġschools": 5478,
      "ĠSouthern": 5479,
      "Ġaccumulated": 5480,
      "Ġmodern": 5481,
      "arr": 5482,
      "Ġserves": 5483,
      "Ġcommunities": 5484,
      "Ġpremiums": 5485,
      "Ġseeks": 5486,
      "Ġliquidity": 5487,
      "Ġparticipate": 5488,
      "Ġ67": 5489,
      "ĠSECUR": 5490,
      "ĠOver": 5491,
      "Ġcovenants": 5492,
      "Ġannounced": 5493,
      "Ġnone": 5494,
      "Ġshowed": 5495,
      "Ġaffiliate": 5496,
      "Ġultimate": 5497,
      "ĠSpr": 5498,
      "Ġdriving": 5499,
      "Ġ69": 5500,
      "Ġbig": 5501,
      "ĠBefore": 5502,
      "Ġdollars": 5503,
      "Ġ1982": 5504,
      "Ġdivor": 5505,
      "ĠMissou": 5506,
      "Ġtestify": 5507,
      "ĠIV": 5508,
      "Ġilleg": 5509,
      "herent": 5510,
      "Ġpool": 5511,
      "Ġarguments": 5512,
      "ĠTreas": 5513,
      "ĠConnecticut": 5514,
      "ĠCOMM": 5515,
      "Ġrise": 5516,
      "Ġ2013": 5517,
      "ĠAPP": 5518,
      "ilit": 5519,
      "Ġslow": 5520,
      "Ġthir": 5521,
      "Ġexplo": 5522,
      "Ġchallenges": 5523,
      "ĠOhio": 5524,
      "ĠResources": 5525,
      "ITH": 5526,
      "Ġonline": 5527,
      "Ġdriver": 5528,
      "cell": 5529,
      "Ġprofits": 5530,
      "Ġmeasures": 5531,
      "Ġhear": 5532,
      "Ġ120": 5533,
      "Ġextend": 5534,
      "Ġcalculated": 5535,
      "Ġdistingu": 5536,
      "Ġprinciple": 5537,
      "Ġcand": 5538,
      "Ġprogramming": 5539,
      "Ġunique": 5540,
      "Ġversion": 5541,
      "Ġassessing": 5542,
      "otes": 5543,
      "Ġacres": 5544,
      "Ġsurround": 5545,
      "Ġ41": 5546,
      "...": 5547,
      "ĠManager": 5548,
      "Ġextensive": 5549,
      "Ġpresents": 5550,
      "ari": 5551,
      "Ġtravel": 5552,
      "Ġvehicles": 5553,
      "Ġunderwrit": 5554,
      "Ġtakes": 5555,
      "Ġdog": 5556,
      "ĠLLC": 5557,
      "Ġcommunication": 5558,
      "Ġcompete": 5559,
      "Ġevaluation": 5560,
      "Ġguidelines": 5561,
      "GA": 5562,
      "Ġplanning": 5563,
      "yle": 5564,
      "rs": 5565,
      "ĠChild": 5566,
      "Ġongoing": 5567,
      "Ġradio": 5568,
      "ĠCong": 5569,
      "Ġarbitration": 5570,
      "ĠWhite": 5571,
      "Ġadvantage": 5572,
      "ula": 5573,
      "Ġsuccessfully": 5574,
      "Ġconvey": 5575,
      "Ġplat": 5576,
      "Ġsentenced": 5577,
      "Ġproport": 5578,
      "ĠEmployee": 5579,
      "Ġnorth": 5580,
      "Ġmess": 5581,
      "Ġexpressly": 5582,
      "Ġmid": 5583,
      "Ġreb": 5584,
      "gen": 5585,
      "utical": 5586,
      "Ġrail": 5587,
      "ĠRob": 5588,
      "Ġworth": 5589,
      "ĠAD": 5590,
      "ervation": 5591,
      "Ġconclus": 5592,
      "ara": 5593,
      "AGEMENT": 5594,
      "Ġconverted": 5595,
      "Ġrelation": 5596,
      "Ġschedules": 5597,
      "Ġ52": 5598,
      "undred": 5599,
      "Ġ98": 5600,
      "ĠCommunications": 5601,
      "Ġparagraph": 5602,
      "uff": 5603,
      "Ġconsulting": 5604,
      "ĠDiscussion": 5605,
      "ray": 5606,
      "Ġthing": 5607,
      "acc": 5608,
      "Ġbul": 5609,
      "vania": 5610,
      "Ġincentive": 5611,
      "Ġfalse": 5612,
      "ĠDet": 5613,
      "Ġaside": 5614,
      "Ġclosed": 5615,
      "ĠNevada": 5616,
      "ĠMexico": 5617,
      "Ġconsisting": 5618,
      "Ġforec": 5619,
      "Ġpredict": 5620,
      "UN": 5621,
      "MC": 5622,
      "ĠSpecial": 5623,
      "Ġsun": 5624,
      "down": 5625,
      "atell": 5626,
      "Ġskin": 5627,
      "Ġcomputed": 5628,
      "syl": 5629,
      "Ġsouth": 5630,
      "Ġafford": 5631,
      "Ġdrink": 5632,
      "Ġ1981": 5633,
      "Ġprote": 5634,
      "Ġadvances": 5635,
      "Ġtwelve": 5636,
      "Ġargue": 5637,
      "Ġproved": 5638,
      "ĠWestern": 5639,
      "iform": 5640,
      "Ġinjured": 5641,
      "esota": 5642,
      "ĠWood": 5643,
      "Ġcommittee": 5644,
      "TERS": 5645,
      "ĠMiller": 5646,
      "Ġsatisfact": 5647,
      "Ġ(âĢľ": 5648,
      "ĠAF": 5649,
      "ternal": 5650,
      "Ġpict": 5651,
      "Ġhom": 5652,
      "ĠCORPOR": 5653,
      "Ġaffidavit": 5654,
      "just": 5655,
      "ARE": 5656,
      "eared": 5657,
      "ĠES": 5658,
      "Ġbod": 5659,
      "Ġgot": 5660,
      "Ġterminate": 5661,
      "sylvania": 5662,
      "Ġclimate": 5663,
      "Ġrelied": 5664,
      "ms": 5665,
      "itude": 5666,
      "ĠOrder": 5667,
      "Ġintegral": 5668,
      "Ġclaimant": 5669,
      "dom": 5670,
      "ĠAdv": 5671,
      "Ġfails": 5672,
      "inent": 5673,
      "ĠCOMPAN": 5674,
      "Ġcrimes": 5675,
      "Ġnine": 5676,
      "itizens": 5677,
      "Ġla": 5678,
      "Ġbranch": 5679,
      "Ġjurors": 5680,
      "ĠCharles": 5681,
      "Ġconsidering": 5682,
      "Ġcore": 5683,
      "ĠFollow": 5684,
      "reements": 5685,
      "Ġsolutions": 5686,
      "ĠMANAGEMENT": 5687,
      "Ġinsufficient": 5688,
      "iveness": 5689,
      "Ġcomparable": 5690,
      "Ġrefin": 5691,
      "Ġiniti": 5692,
      "Ġfunda": 5693,
      "ĠCentral": 5694,
      "Ġvers": 5695,
      "Ġcarryfor": 5696,
      "ĠEnter": 5697,
      "Ġpossess": 5698,
      "ĠMinnesota": 5699,
      "ĠElectric": 5700,
      "Ġengage": 5701,
      "effective": 5702,
      "Ġconvertible": 5703,
      "ĠUt": 5704,
      "aceutical": 5705,
      "Ġidentification": 5706,
      "Ġspread": 5707,
      "ĠBorrow": 5708,
      "ifies": 5709,
      "Ġpreparation": 5710,
      "ĠCondition": 5711,
      "idential": 5712,
      "Ġagents": 5713,
      "Â§": 5714,
      "venile": 5715,
      "aled": 5716,
      "loss": 5717,
      "Ġstrategic": 5718,
      "inson": 5719,
      "ĠSchedule": 5720,
      "Ġstage": 5721,
      "CR": 5722,
      "Ġbehind": 5723,
      "ĠOpinion": 5724,
      "ĠOfficers": 5725,
      "asc": 5726,
      "ensing": 5727,
      "statement": 5728,
      "rast": 5729,
      "Ġdistributors": 5730,
      "Ġpowers": 5731,
      "Ġwarn": 5732,
      "Ġdistance": 5733,
      "ĠPennsylvania": 5734,
      "utive": 5735,
      "ĠDeferred": 5736,
      "eline": 5737,
      "Ġimplic": 5738,
      "ĠIndian": 5739,
      "ĠFair": 5740,
      "ĠEduc": 5741,
      "Ġ77": 5742,
      "ĠControl": 5743,
      "Ġremanded": 5744,
      "Ġsheets": 5745,
      "Ġprevail": 5746,
      "irth": 5747,
      "Ġ109": 5748,
      "roximately": 5749,
      "ĠArkansas": 5750,
      "ĠOR": 5751,
      "berg": 5752,
      "Ġanc": 5753,
      "ĠSCH": 5754,
      "Ġcertified": 5755,
      "Ġdepending": 5756,
      "EST": 5757,
      "ality": 5758,
      "Ġtotaling": 5759,
      "uclear": 5760,
      "Ġwaiver": 5761,
      "ĠDavis": 5762,
      "Ġheat": 5763,
      "Ġfranchise": 5764,
      "Ġimplementation": 5765,
      "Ġsomeone": 5766,
      "Ġpopular": 5767,
      "Ġhomes": 5768,
      "Ġworked": 5769,
      "Ġlooking": 5770,
      "ĠDEC": 5771,
      "ĠFl": 5772,
      "ĠCarolina": 5773,
      "aired": 5774,
      "Ġsupplies": 5775,
      "ĠWell": 5776,
      "Ġmarriage": 5777,
      "Ġconcerns": 5778,
      "Ġ1975": 5779,
      "anges": 5780,
      "Ġindicates": 5781,
      "Ġsociety": 5782,
      "which": 5783,
      "TAIN": 5784,
      "ucky": 5785,
      "ĠJose": 5786,
      "ĠAR": 5787,
      "Ġsecure": 5788,
      "ĠSTOCK": 5789,
      "yers": 5790,
      "ĠGold": 5791,
      "enders": 5792,
      "Ġphysician": 5793,
      "Ġbear": 5794,
      "era": 5795,
      "IB": 5796,
      "ĠMAT": 5797,
      "Ġcode": 5798,
      "urrence": 5799,
      "Ġdied": 5800,
      "Ġrepair": 5801,
      "ĠACCOUNTING": 5802,
      "insurance": 5803,
      "Ġdoor": 5804,
      "Ġamounted": 5805,
      "Ġgrad": 5806,
      "atically": 5807,
      "issions": 5808,
      "gar": 5809,
      "ĠCORPORATION": 5810,
      "ĠProt": 5811,
      "ĠJudicial": 5812,
      "Ġpoll": 5813,
      "Ġstarted": 5814,
      "gery": 5815,
      "Ġinside": 5816,
      "ĠBell": 5817,
      "Ġpossibility": 5818,
      "oma": 5819,
      "Ġindict": 5820,
      "Ġranging": 5821,
      "ĠInst": 5822,
      "Ġsuffered": 5823,
      "Ġprovider": 5824,
      "Ġdeclined": 5825,
      "Ġultimately": 5826,
      "Ġ53": 5827,
      "Ġcomment": 5828,
      "Ġconvictions": 5829,
      "ĠTechnology": 5830,
      "Ġ79": 5831,
      "rual": 5832,
      "Ġbott": 5833,
      "Ġ2014": 5834,
      "Ġ43": 5835,
      "Ġexact": 5836,
      "Ġsometimes": 5837,
      "Ġhar": 5838,
      "Ġcounts": 5839,
      "ĠFore": 5840,
      "Ġsettled": 5841,
      "Ġspl": 5842,
      "Ġgoodwill": 5843,
      "ISTR": 5844,
      "rical": 5845,
      "ĠGood": 5846,
      "rote": 5847,
      "ĠHum": 5848,
      "Ġanimals": 5849,
      "Ġconsequences": 5850,
      "Ġimprovement": 5851,
      "Ġholder": 5852,
      "ĠPal": 5853,
      "MA": 5854,
      "Ġgives": 5855,
      "Ġresearchers": 5856,
      "Ġcounter": 5857,
      "ĠParticip": 5858,
      "Ġimpose": 5859,
      "mbol": 5860,
      "Ġgeneration": 5861,
      "250": 5862,
      "Ġshoot": 5863,
      "ĠProject": 5864,
      "Ġetc": 5865,
      "Ġdrive": 5866,
      "ĠAC": 5867,
      "Ġcovering": 5868,
      "celer": 5869,
      "Ġenable": 5870,
      "MS": 5871,
      "Ġdirection": 5872,
      "Ġshot": 5873,
      "Ġtelecommunications": 5874,
      "%)": 5875,
      "col": 5876,
      "ĠDate": 5877,
      "Ġconvers": 5878,
      "viously": 5879,
      "Ġaddressed": 5880,
      "ractice": 5881,
      "Ġidea": 5882,
      "ĠAlaska": 5883,
      "Ġdoctor": 5884,
      "600": 5885,
      "ĠWal": 5886,
      "Ġstip": 5887,
      "ibly": 5888,
      "ĠLouisiana": 5889,
      "Ġ97": 5890,
      "ordinary": 5891,
      "looking": 5892,
      "organization": 5893,
      "Ġseems": 5894,
      "Ġpick": 5895,
      "usion": 5896,
      "Ġ78": 5897,
      "Ġbelief": 5898,
      "hest": 5899,
      "Ġhyd": 5900,
      "Ġhealthy": 5901,
      "Ġparticipants": 5902,
      "Ġfunded": 5903,
      "roc": 5904,
      "Ġdescription": 5905,
      "Ġasserts": 5906,
      "eck": 5907,
      "issue": 5908,
      "Ġsetting": 5909,
      "Ġnumbers": 5910,
      "iques": 5911,
      "Ġnetworks": 5912,
      "Ġparticipation": 5913,
      "ĠThrough": 5914,
      "itz": 5915,
      "Ġconstitution": 5916,
      "ĠAtty": 5917,
      "sured": 5918,
      "Ġmanager": 5919,
      "Ġreceiving": 5920,
      "ĠInstitute": 5921,
      "anks": 5922,
      "ĠUN": 5923,
      "ĠUnit": 5924,
      "inations": 5925,
      "Ġinterview": 5926,
      "Ġcertificate": 5927,
      "lude": 5928,
      "Ġuser": 5929,
      "ĠBritish": 5930,
      "Ġcollabor": 5931,
      "Ġ87": 5932,
      "Ġassignment": 5933,
      "water": 5934,
      "Ġevident": 5935,
      "erce": 5936,
      "ĠEm": 5937,
      "Ġmerchand": 5938,
      "We": 5939,
      "Ġsteps": 5940,
      "Ġ1979": 5941,
      "Ġrejected": 5942,
      "ĠJersey": 5943,
      "Ġerrors": 5944,
      "Ġoccurs": 5945,
      "ĠAssistant": 5946,
      "Ġoriginally": 5947,
      "ĠEnvironmental": 5948,
      "ĠRelated": 5949,
      "Ġrender": 5950,
      "Ġweap": 5951,
      "no": 5952,
      "Ġdismissal": 5953,
      "sequently": 5954,
      "Ġintegrated": 5955,
      "Ġwood": 5956,
      "Ġmanufactured": 5957,
      "Ġexhibits": 5958,
      "ĠDue": 5959,
      "Ġsubmit": 5960,
      "Ġordinance": 5961,
      "Ġexplor": 5962,
      "Ġbooks": 5963,
      "Ġdischarge": 5964,
      "limin": 5965,
      "Ġscientific": 5966,
      "Ġauditing": 5967,
      "reek": 5968,
      "ĠContin": 5969,
      "Ġdivorce": 5970,
      "ĠSun": 5971,
      "Ġefficient": 5972,
      "inding": 5973,
      "Ġhost": 5974,
      "Ġgrants": 5975,
      "ĠAT": 5976,
      "ARD": 5977,
      "Ġending": 5978,
      "ĠEQU": 5979,
      "Ġaccordingly": 5980,
      "ĠChina": 5981,
      "Ġexamining": 5982,
      "ĠSavings": 5983,
      "Ġfloor": 5984,
      "Ġmulti": 5985,
      "Ġincons": 5986,
      "ĠPetition": 5987,
      "ena": 5988,
      "Ġamb": 5989,
      "ĠCOMPANY": 5990,
      "Ġlawyer": 5991,
      "Ġassociation": 5992,
      "ĠPrincip": 5993,
      "eas": 5994,
      "Ġsatisfy": 5995,
      "ĠEnded": 5996,
      "ĠMod": 5997,
      "Ġcapacities": 5998,
      "ns": 5999,
      "Ġbroker": 6000,
      "ATA": 6001,
      "ĠReserve": 6002,
      "Ġtrials": 6003,
      "Ġpresident": 6004,
      "Ġstations": 6005,
      "ĠAv": 6006,
      "Ġmitig": 6007,
      "Ġliter": 6008,
      "Ġsem": 6009,
      "EMBER": 6010,
      "Ġbrand": 6011,
      "ĠColumb": 6012,
      "Ġpotentially": 6013,
      "Ġdisplay": 6014,
      "ĠCompanies": 6015,
      "ĠFollowing": 6016,
      "Ġhardware": 6017,
      "cing": 6018,
      "oston": 6019,
      "Ġquoted": 6020,
      "Ġarrangement": 6021,
      "Ġsmaller": 6022,
      "ĠSubsidiaries": 6023,
      "ĠYEAR": 6024,
      "ciation": 6025,
      "ĠGl": 6026,
      "âĢŁ": 6027,
      "oud": 6028,
      "ĠGeorge": 6029,
      "urt": 6030,
      ".âĢĻ": 6031,
      "Ġutilized": 6032,
      "ĠRegulation": 6033,
      "linary": 6034,
      "itect": 6035,
      "Ġdollar": 6036,
      "Ġmentioned": 6037,
      "inions": 6038,
      "Ġpul": 6039,
      "ellow": 6040,
      "olute": 6041,
      "ĠAud": 6042,
      "Ġadmin": 6043,
      "Ġservicing": 6044,
      "ĠVenture": 6045,
      "Ġcontest": 6046,
      "Ġinherent": 6047,
      "asonable": 6048,
      "Ġobtaining": 6049,
      "Ġbon": 6050,
      "hat": 6051,
      "Ġmodified": 6052,
      "Ġsoon": 6053,
      "rench": 6054,
      "Ġ44": 6055,
      "oly": 6056,
      "Ġtal": 6057,
      "ki": 6058,
      "Ġware": 6059,
      "ĠTrustee": 6060,
      "ĠTwo": 6061,
      "pay": 6062,
      "Ġslight": 6063,
      "ĠClark": 6064,
      "Ġinstance": 6065,
      "anged": 6066,
      "Ġtract": 6067,
      "hel": 6068,
      "Ġprobably": 6069,
      "800": 6070,
      "Ġreimbursement": 6071,
      "essor": 6072,
      "place": 6073,
      "Ġship": 6074,
      "Ġmagn": 6075,
      "ĠOPERATIONS": 6076,
      "ĠSy": 6077,
      "Ġcontrols": 6078,
      "Ġserving": 6079,
      "Ġreducing": 6080,
      "ricult": 6081,
      "Ġpromp": 6082,
      "Ġcontaining": 6083,
      "haps": 6084,
      "Ġpanel": 6085,
      "Ġrepurchase": 6086,
      "Ġappeared": 6087,
      "Ġimportance": 6088,
      "Ġplaces": 6089,
      "Ġspent": 6090,
      "Ġcontingent": 6091,
      "BI": 6092,
      "Ġawards": 6093,
      "Ġtry": 6094,
      "vidence": 6095,
      "Ġsleep": 6096,
      "Ġmilitary": 6097,
      "ĠFood": 6098,
      "Ġask": 6099,
      "Ġhabit": 6100,
      "ĠSol": 6101,
      "Ġvoluntary": 6102,
      "liminary": 6103,
      "Ġlien": 6104,
      "Ġoffenses": 6105,
      "ĠPART": 6106,
      "Ġacknowled": 6107,
      "Ġcontempl": 6108,
      "Ġexecution": 6109,
      "Ġball": 6110,
      "TIES": 6111,
      "ĠOil": 6112,
      "Ġvariable": 6113,
      "Ġredemption": 6114,
      "ĠQuarterly": 6115,
      "ĠNetwork": 6116,
      "opping": 6117,
      "Ġflex": 6118,
      "Ġcomprised": 6119,
      "ellig": 6120,
      "Ġ89": 6121,
      "lease": 6122,
      "Ġ2015": 6123,
      "Ġhtt": 6124,
      "Ġdece": 6125,
      "Ġdangerous": 6126,
      "Ġgreen": 6127,
      "Ġshareholder": 6128,
      "endar": 6129,
      "ĠEngland": 6130,
      "Ġhundred": 6131,
      "Ġpresumption": 6132,
      "epend": 6133,
      "Ġtherapy": 6134,
      "ctional": 6135,
      "Ġacceptance": 6136,
      "ĠCle": 6137,
      "Ġguilt": 6138,
      "Ġimmunity": 6139,
      "Ġcriteria": 6140,
      "ĠAP": 6141,
      "urring": 6142,
      "Ġjuror": 6143,
      "Ġ88": 6144,
      "ĠCongress": 6145,
      "Ġcreating": 6146,
      "Ġchanging": 6147,
      "ĠYears": 6148,
      "Ġhazard": 6149,
      "Ġconnect": 6150,
      "Ġeasily": 6151,
      "ĠJoint": 6152,
      "Ġsymbol": 6153,
      "Ġformal": 6154,
      "umer": 6155,
      "ĠDECEMBER": 6156,
      "ĠMissouri": 6157,
      "FIC": 6158,
      "ingly": 6159,
      "Ġannually": 6160,
      "Ġagricult": 6161,
      "08": 6162,
      "ductions": 6163,
      "ĠMeeting": 6164,
      "Ġke": 6165,
      "Ġtemperature": 6166,
      "Ġprescribed": 6167,
      "Ch": 6168,
      "Ġmargins": 6169,
      "Ġhands": 6170,
      "Ġrecommended": 6171,
      "roy": 6172,
      "Ġquickly": 6173,
      "abric": 6174,
      "Ġlik": 6175,
      "Ġphotograph": 6176,
      "ĠEr": 6177,
      "Ġdisposal": 6178,
      "Ġerroneous": 6179,
      "Ġdeep": 6180,
      "Ġsections": 6181,
      "Ġpursu": 6182,
      "Ġrepresentation": 6183,
      "Ġproducing": 6184,
      "Ġalleging": 6185,
      "ĠBuild": 6186,
      "ĠLE": 6187,
      "Ġinval": 6188,
      "Ġrepresentative": 6189,
      "held": 6190,
      "UD": 6191,
      "Ġplead": 6192,
      "Ġchoice": 6193,
      "ELL": 6194,
      "kn": 6195,
      "Ġnearly": 6196,
      "ĠOb": 6197,
      "ĠPL": 6198,
      "Ġundert": 6199,
      "ĠRELATED": 6200,
      "ĠAppellate": 6201,
      "Ġfru": 6202,
      "ops": 6203,
      "Ġtechniques": 6204,
      "AD": 6205,
      "Ġbatter": 6206,
      "isp": 6207,
      "Ġconsiders": 6208,
      "Ġfem": 6209,
      "Ġadvis": 6210,
      "Ġannum": 6211,
      "ĠJeff": 6212,
      "Ġattached": 6213,
      "Ġacceler": 6214,
      "Ġdistinct": 6215,
      "Ġadjud": 6216,
      "ĠHill": 6217,
      "ĠHouse": 6218,
      "ĠKentucky": 6219,
      "BM": 6220,
      "issory": 6221,
      "Ġ1978": 6222,
      "ĠArizona": 6223,
      "Ġwon": 6224,
      "Ġconven": 6225,
      "fect": 6226,
      "52": 6227,
      "Ġmonitoring": 6228,
      "Ġeasy": 6229,
      "Ġinvested": 6230,
      "Ġstrict": 6231,
      "iry": 6232,
      "Ġcoal": 6233,
      "Am": 6234,
      "ĠFD": 6235,
      "Ġ130": 6236,
      "Ġviolations": 6237,
      "ĠStr": 6238,
      "Ġing": 6239,
      "ĠOW": 6240,
      "ENS": 6241,
      "Ġconcerned": 6242,
      "Ġdat": 6243,
      "iration": 6244,
      "Ġreserved": 6245,
      "Ġneigh": 6246,
      "Ġep": 6247,
      "Ġraw": 6248,
      "Ġfluctuations": 6249,
      "ANCE": 6250,
      "work": 6251,
      "Ġaband": 6252,
      "Ġpresently": 6253,
      "Ġreturns": 6254,
      "Ġcharacteristics": 6255,
      "eter": 6256,
      "BC": 6257,
      "Ġacting": 6258,
      "Inc": 6259,
      "ĠCare": 6260,
      "ĠCorporate": 6261,
      "Ġcarriers": 6262,
      "ĠSCHED": 6263,
      "ours": 6264,
      "Ġmovement": 6265,
      "ĠMartin": 6266,
      "itan": 6267,
      "Ġinitially": 6268,
      "ĠEarth": 6269,
      "Ġcandid": 6270,
      "Ġsupports": 6271,
      "aught": 6272,
      "Ġpoor": 6273,
      "Ġportions": 6274,
      "ESS": 6275,
      "Ġ128": 6276,
      "53": 6277,
      "Ġwrote": 6278,
      "Ġunders": 6279,
      "BL": 6280,
      "Ġdry": 6281,
      "uration": 6282,
      "Ġmeasured": 6283,
      "rated": 6284,
      "Ġnegligent": 6285,
      "icate": 6286,
      "ĠMid": 6287,
      "ĠRoy": 6288,
      "Ġeth": 6289,
      "ĠREGISTR": 6290,
      "Ġapplying": 6291,
      "Ġmoving": 6292,
      "Ġweather": 6293,
      "ĠGreat": 6294,
      "Ġmicro": 6295,
      "Ġconstrued": 6296,
      "ĠPost": 6297,
      "ĠIND": 6298,
      "ero": 6299,
      "inqu": 6300,
      "Ġstrength": 6301,
      "ĠIT": 6302,
      "Ġintroduction": 6303,
      "ky": 6304,
      "ĠPe": 6305,
      "Ġquite": 6306,
      "Ġcarryforwards": 6307,
      "ĠLake": 6308,
      "Ġappra": 6309,
      "ĠLee": 6310,
      "02": 6311,
      "Ġcorrectly": 6312,
      "Ġimmediate": 6313,
      "Ġconclusions": 6314,
      "Ġgeographic": 6315,
      "Ġaspects": 6316,
      "Ġlending": 6317,
      "Ġremove": 6318,
      "Ġconsumm": 6319,
      "ĠEngine": 6320,
      "Ġmachine": 6321,
      "Ġanti": 6322,
      "Ġopened": 6323,
      "Ġchec": 6324,
      "ĠStatutes": 6325,
      "Ġterrit": 6326,
      "Ġlawsuit": 6327,
      "ĠIr": 6328,
      "ĠJew": 6329,
      "Ġ51": 6330,
      "Ġtiming": 6331,
      "Ġ2016": 6332,
      "Ġprop": 6333,
      "viction": 6334,
      "Ġhyp": 6335,
      "Ġfundamental": 6336,
      "Ġguard": 6337,
      "56": 6338,
      "Ġgoal": 6339,
      "Ġcompletely": 6340,
      "ĠDepre": 6341,
      "adian": 6342,
      "Ġcarbon": 6343,
      "Ġtruth": 6344,
      "LI": 6345,
      "ĠHospital": 6346,
      "ĠDou": 6347,
      "ĠProced": 6348,
      "Ġcalendar": 6349,
      "ĠCAS": 6350,
      "inger": 6351,
      "Ġwanted": 6352,
      "07": 6353,
      "Ġdetailed": 6354,
      "ĠBel": 6355,
      "ĠFlow": 6356,
      "Ġcapt": 6357,
      "ĠPrice": 6358,
      "ĠSign": 6359,
      "Ġjuvenile": 6360,
      "Ġphr": 6361,
      "apers": 6362,
      "Ġdemonstrate": 6363,
      "Ġhighest": 6364,
      "51": 6365,
      "ĠBer": 6366,
      "spec": 6367,
      "Ġabsolute": 6368,
      "Ġsells": 6369,
      "Ġimage": 6370,
      "Ġthirty": 6371,
      "Ġlatter": 6372,
      "ĠReports": 6373,
      "ĠOnce": 6374,
      "theless": 6375,
      "Ġign": 6376,
      "Ġopening": 6377,
      "ĠDepreciation": 6378,
      "Ġtrademark": 6379,
      "Ġsteel": 6380,
      "ĠThird": 6381,
      "Ġbarg": 6382,
      "emph": 6383,
      "orporations": 6384,
      "ĠWarrant": 6385,
      "ĠBoston": 6386,
      "Ġease": 6387,
      "ifth": 6388,
      "Ġwaived": 6389,
      "Ġestablishes": 6390,
      "Ġremediation": 6391,
      "Ġenjoy": 6392,
      "fort": 6393,
      "Ġinvalid": 6394,
      "ij": 6395,
      "Ġmerits": 6396,
      "Ġrepeated": 6397,
      "ĠFinance": 6398,
      "Ġreplacement": 6399,
      "Ġstrategies": 6400,
      "Ġsatell": 6401,
      "arden": 6402,
      "Ġindictment": 6403,
      "ĠBanc": 6404,
      "ĠEND": 6405,
      "Ġearth": 6406,
      "Ġbirth": 6407,
      "Ġ500": 6408,
      "ĠNE": 6409,
      "aylor": 6410,
      "Ġrely": 6411,
      "ÂŃ": 6412,
      "URE": 6413,
      "Ġcapabilities": 6414,
      "Ġextraordinary": 6415,
      "uate": 6416,
      "Ġpreliminary": 6417,
      "TIONS": 6418,
      "rig": 6419,
      "Ġadvised": 6420,
      "Ġexceptions": 6421,
      "Ġplatform": 6422,
      "ructure": 6423,
      "Reg": 6424,
      "tax": 6425,
      "Ġindustries": 6426,
      "ĠNow": 6427,
      "Ġwal": 6428,
      "Ġmaster": 6429,
      "Ġdepends": 6430,
      "Ġfocused": 6431,
      "Ġgoverning": 6432,
      "Ġcollected": 6433,
      "ĠInternal": 6434,
      "onor": 6435,
      "Ġdespite": 6436,
      "ĠManaging": 6437,
      "ĠCouncil": 6438,
      "ĠMal": 6439,
      "Ġcausing": 6440,
      "Ġmodels": 6441,
      "Ġcontribute": 6442,
      "Ġsentences": 6443,
      "raz": 6444,
      "Ġpaying": 6445,
      "Ġvested": 6446,
      "Ġrefere": 6447,
      "Ġemergency": 6448,
      "ĠLoans": 6449,
      "ĠAdvis": 6450,
      "Ġstating": 6451,
      "Ġprime": 6452,
      "ĠOptions": 6453,
      "Ġmodification": 6454,
      "Ġnews": 6455,
      "risonment": 6456,
      "Ġsolution": 6457,
      "09": 6458,
      "pe": 6459,
      "Ġaffirmative": 6460,
      "Ġmaintaining": 6461,
      "agers": 6462,
      "burg": 6463,
      "Ġpled": 6464,
      "anufact": 6465,
      "ĠMac": 6466,
      "Ġcontrolling": 6467,
      "Ġcaption": 6468,
      "Ġresidence": 6469,
      "Ġentirely": 6470,
      "Ġgir": 6471,
      "Ġcooper": 6472,
      "Ġexcluded": 6473,
      "Ġgenerate": 6474,
      "Ġcategories": 6475,
      "54": 6476,
      "iat": 6477,
      "Ġhelps": 6478,
      "Ġ300": 6479,
      "Ala": 6480,
      "Ġguaranteed": 6481,
      "ilies": 6482,
      "Ġproportion": 6483,
      "acing": 6484,
      "Ġimprisonment": 6485,
      "ĠHen": 6486,
      "Ġdiseases": 6487,
      "Ġhy": 6488,
      "Ġmanaging": 6489,
      "Ġmusc": 6490,
      "ancellor": 6491,
      "ĠREGISTRANT": 6492,
      "add": 6493,
      "light": 6494,
      "Ġdetect": 6495,
      "ĠHall": 6496,
      "Ġ401": 6497,
      "Ġpoly": 6498,
      "150": 6499,
      "Ġexpiration": 6500,
      "ĠMATTERS": 6501,
      "Ġreviewing": 6502,
      "Ġanimal": 6503,
      "alized": 6504,
      "Ġmusic": 6505,
      "oned": 6506,
      "ĠWhere": 6507,
      "ĠScott": 6508,
      "Ġconsolidation": 6509,
      "board": 6510,
      "ĠCR": 6511,
      "Ġobjective": 6512,
      "oked": 6513,
      "Ġvoid": 6514,
      "Ġresist": 6515,
      "Ġseem": 6516,
      "ĠColl": 6517,
      "Ġ1977": 6518,
      "Ġrating": 6519,
      "kin": 6520,
      "ĠOC": 6521,
      "ester": 6522,
      "Ġbrother": 6523,
      "ĠStep": 6524,
      "Ġpert": 6525,
      "Ġfish": 6526,
      "hips": 6527,
      "ĠIndenture": 6528,
      "âĢ¦": 6529,
      "Ġexisted": 6530,
      "astern": 6531,
      "ĠJoseph": 6532,
      "eech": 6533,
      "HIP": 6534,
      "ulf": 6535,
      "edent": 6536,
      "Ġvia": 6537,
      "ĠWhether": 6538,
      "ĠSECURITY": 6539,
      "Ġfoods": 6540,
      "Ġexpanded": 6541,
      "Ġbroadcast": 6542,
      "ĠDeb": 6543,
      "ĠBay": 6544,
      "bed": 6545,
      "Ġtowards": 6546,
      "aters": 6547,
      "Ġdiluted": 6548,
      "Ġpurport": 6549,
      "Ġfriend": 6550,
      "ĠMarketing": 6551,
      "arrow": 6552,
      "Ġteachers": 6553,
      "Ġbud": 6554,
      "ĠAnderson": 6555,
      "ountain": 6556,
      "Ġcategory": 6557,
      "Ġunpaid": 6558,
      "ĠDNA": 6559,
      "GE": 6560,
      "Ġ333": 6561,
      "Su": 6562,
      "Ġdiscontinued": 6563,
      "Ġwild": 6564,
      "Ġestablishing": 6565,
      "Ġprohibit": 6566,
      "pped": 6567,
      "Ġremoval": 6568,
      "Ġcalls": 6569,
      "ĠFamily": 6570,
      "ĠRock": 6571,
      "Ġpartnerships": 6572,
      "Ġruled": 6573,
      "Ġcommissions": 6574,
      "onom": 6575,
      "arsh": 6576,
      "ĠDATA": 6577,
      "ĠIndia": 6578,
      "ĠCERTAIN": 6579,
      "Ġago": 6580,
      "Ġclasses": 6581,
      "ĠIndustries": 6582,
      "otion": 6583,
      "ouses": 6584,
      "ĠWilson": 6585,
      "Ġcod": 6586,
      "Ġillegal": 6587,
      "ĠENDED": 6588,
      "ĠIndependent": 6589,
      "Ġacted": 6590,
      "Ġborrowing": 6591,
      "ĠSUP": 6592,
      "Ġmandatory": 6593,
      "ĠBo": 6594,
      "ĠScience": 6595,
      "eli": 6596,
      "Ġorganized": 6597,
      "ondon": 6598,
      "Ġemphas": 6599,
      "Ġnegoti": 6600,
      "Ġinvestors": 6601,
      "Ġeconomy": 6602,
      "Ġsatisfied": 6603,
      "aud": 6604,
      "ĠAdministration": 6605,
      "Ġshipp": 6606,
      "ĠFact": 6607,
      "Ġlargely": 6608,
      "Ġmarks": 6609,
      "Ġ54": 6610,
      "Ġrepay": 6611,
      "ĠArm": 6612,
      "ĠOld": 6613,
      "ĠPay": 6614,
      "ĠIndustrial": 6615,
      "ĠTur": 6616,
      "ĠPhil": 6617,
      "ĠHolding": 6618,
      "Ġvendors": 6619,
      "ĠAgent": 6620,
      "Ġchoose": 6621,
      "Ġreceives": 6622,
      "Ġtenant": 6623,
      "ĠUs": 6624,
      "ĠAppellee": 6625,
      "ander": 6626,
      "Ġimplemented": 6627,
      "resh": 6628,
      "Ġfast": 6629,
      "Ġcarrier": 6630,
      "Ġderivative": 6631,
      "Ġspeak": 6632,
      "Ġprotected": 6633,
      "ĠEducation": 6634,
      "Ġpartial": 6635,
      "Ġmanifest": 6636,
      "Ġdrilling": 6637,
      "ĠInstead": 6638,
      "conviction": 6639,
      "ĠMT": 6640,
      "Ġsuggests": 6641,
      "abet": 6642,
      "ĠOut": 6643,
      "Ġrestaurant": 6644,
      "ĠCriminal": 6645,
      "Ġassume": 6646,
      "ĠOWNERS": 6647,
      "Ġgetting": 6648,
      "Ġwebs": 6649,
      "Ġbearing": 6650,
      "Ġmatch": 6651,
      "Ġbox": 6652,
      "ĠPolic": 6653,
      "Ġeliminated": 6654,
      "Ġamendments": 6655,
      "ĠChapter": 6656,
      "Ġaffiliated": 6657,
      "ĠWITH": 6658,
      "Ġsubordinated": 6659,
      "Ġextension": 6660,
      "sub": 6661,
      "ĠValley": 6662,
      "Ġdepri": 6663,
      "Ġimplied": 6664,
      "ĠLabor": 6665,
      "Ġelectricity": 6666,
      "ste": 6667,
      "ĠBill": 6668,
      "Ġheadqu": 6669,
      "Ġsummer": 6670,
      "ĠGuarant": 6671,
      "Ġscale": 6672,
      "Ġmag": 6673,
      "Ġ1970": 6674,
      "Ġexplain": 6675,
      "Ġeye": 6676,
      "ĠIncorporation": 6677,
      "ica": 6678,
      "Ġfabric": 6679,
      "Ġwholes": 6680,
      "Ġrational": 6681,
      "Ġfacilit": 6682,
      "ĠPerson": 6683,
      "Ġprivilege": 6684,
      "Ġdefinitive": 6685,
      "Man": 6686,
      "essel": 6687,
      "Ġadmissible": 6688,
      "Ġscreen": 6689,
      "Ġupgr": 6690,
      "Ġweak": 6691,
      "Ġhousing": 6692,
      "itations": 6693,
      "vo": 6694,
      "Ġ110": 6695,
      "Ġsurrounding": 6696,
      "known": 6697,
      "________________": 6698,
      "that": 6699,
      "arnings": 6700,
      "HOLD": 6701,
      "ĠAre": 6702,
      "regon": 6703,
      "ĠMur": 6704,
      "Ġ61": 6705,
      "Ġlived": 6706,
      "Ġbacter": 6707,
      "ĠLic": 6708,
      "Ġrepresentatives": 6709,
      "ĠFrench": 6710,
      "Ġ133": 6711,
      "Ġchapter": 6712,
      "Ġarchitect": 6713,
      "irds": 6714,
      "Ġchief": 6715,
      "Ġunlaw": 6716,
      "ĠQual": 6717,
      "Ġrefer": 6718,
      "que": 6719,
      "Ġwarm": 6720,
      "qualified": 6721,
      "ĠDay": 6722,
      "Ġadmit": 6723,
      "Ġfight": 6724,
      "atur": 6725,
      "ĠAnother": 6726,
      "Ġinstructed": 6727,
      "ĠFDIC": 6728,
      "Ġprospective": 6729,
      "Ġplanned": 6730,
      "Ġnewly": 6731,
      "Ġindex": 6732,
      "ĠBalance": 6733,
      "unch": 6734,
      "Ġvacc": 6735,
      "book": 6736,
      "gn": 6737,
      "PC": 6738,
      "stood": 6739,
      "Ġrestaurants": 6740,
      "iance": 6741,
      "Ġfunctional": 6742,
      "Ġinquiry": 6743,
      "ĠQU": 6744,
      "ĠBas": 6745,
      "Ġ121": 6746,
      "File": 6747,
      "Ġhighway": 6748,
      "END": 6749,
      "represent": 6750,
      "Ġ2017": 6751,
      "lock": 6752,
      "Ġtrustee": 6753,
      "Ġpreceding": 6754,
      "Ġachieved": 6755,
      "utation": 6756,
      "ĠYoun": 6757,
      "ensions": 6758,
      "Ġ56": 6759,
      "lec": 6760,
      "Ġmemory": 6761,
      "ĠEv": 6762,
      "Ġalter": 6763,
      "Ġaffecting": 6764,
      "Ġvolumes": 6765,
      "ĠPlaintiffs": 6766,
      "Alaska": 6767,
      "Ġvalidity": 6768,
      "Ġleaders": 6769,
      "Ġmetal": 6770,
      "Ġdeliber": 6771,
      "Ġburn": 6772,
      "pet": 6773,
      "Ġcontrast": 6774,
      "Ġemotional": 6775,
      "This": 6776,
      "Ġscientists": 6777,
      "Ġsurgery": 6778,
      "Ġelsewhere": 6779,
      "Ġappellees": 6780,
      "Ġcommonly": 6781,
      "ĠAuthor": 6782,
      "ĠÂ§Â§": 6783,
      "BA": 6784,
      "Ġsuspended": 6785,
      "Ġkilled": 6786,
      "Ġseed": 6787,
      "ĠExhibits": 6788,
      "Ġfrequently": 6789,
      "ĠConc": 6790,
      "anda": 6791,
      "Ġpertinent": 6792,
      "Ġkill": 6793,
      "Ġliber": 6794,
      "ĠUSA": 6795,
      "Ġaid": 6796,
      "Ġgame": 6797,
      "Ġconstant": 6798,
      "Fla": 6799,
      "Ġrestated": 6800,
      "ocket": 6801,
      "Ġtechnological": 6802,
      "Ġuns": 6803,
      "Ġquot": 6804,
      "Ġstreet": 6805,
      "Ġsect": 6806,
      "ĠOregon": 6807,
      "Ġmineral": 6808,
      "Ġnuclear": 6809,
      "Ġmiss": 6810,
      "Ġexcluding": 6811,
      "Ġculture": 6812,
      "ĠTenn": 6813,
      "Ġscene": 6814,
      "Ġdatab": 6815,
      "Ġdouble": 6816,
      "Ġeducational": 6817,
      "Ġequitable": 6818,
      "Ġdrawn": 6819,
      ".;": 6820,
      "ĠRevenues": 6821,
      "ĠPER": 6822,
      "Ġlicensing": 6823,
      "Ġoffender": 6824,
      "cel": 6825,
      "retirement": 6826,
      "uated": 6827,
      "ĠMARK": 6828,
      "othing": 6829,
      "Ġbuy": 6830,
      "Ġwoman": 6831,
      "Ġmorning": 6832,
      "Ġarise": 6833,
      "ĠHel": 6834,
      "Ġirre": 6835,
      "Ġlif": 6836,
      "Ġwells": 6837,
      "ĠAustralia": 6838,
      "Ġlat": 6839,
      "FOR": 6840,
      "Ġprejudicial": 6841,
      "IGN": 6842,
      "Ġroyalty": 6843,
      "alled": 6844,
      "OUS": 6845,
      "Ġbenefici": 6846,
      "opped": 6847,
      ".âĢĻâĢĻ": 6848,
      "Ġmedic": 6849,
      "Ġrelate": 6850,
      "rastructure": 6851,
      "Ġ1976": 6852,
      "Ġinconsistent": 6853,
      "uk": 6854,
      ".]": 6855,
      "Ġrunning": 6856,
      "Ġcities": 6857,
      "Ġrelies": 6858,
      "Ġremainder": 6859,
      "ĠMA": 6860,
      "ĠCanadian": 6861,
      "ĠLondon": 6862,
      "Ġbab": 6863,
      "Ã©": 6864,
      "Ġinnov": 6865,
      "Ġhealthcare": 6866,
      "Ġaim": 6867,
      "gun": 6868,
      "Ġconstituted": 6869,
      "Ġdivided": 6870,
      "ellect": 6871,
      "ĠCommercial": 6872,
      "Ġtraded": 6873,
      "Ġwid": 6874,
      "ĠCable": 6875,
      "Ġlove": 6876,
      "Ġcertificates": 6877,
      "Ġoperator": 6878,
      "Ġsuspension": 6879,
      "lim": 6880,
      "ĠSTATEMENT": 6881,
      "ĠIts": 6882,
      "Ġsuggested": 6883,
      "ĠBi": 6884,
      "Ġapproximate": 6885,
      "An": 6886,
      "ĠTaylor": 6887,
      "Ġwhereby": 6888,
      "Ġretro": 6889,
      "AW": 6890,
      "Incorporated": 6891,
      "MI": 6892,
      "Ġexplan": 6893,
      "Ġrenewal": 6894,
      "iguous": 6895,
      "venue": 6896,
      "Ġconstitutes": 6897,
      "plus": 6898,
      "iece": 6899,
      "Ġthereon": 6900,
      "ĠGermany": 6901,
      "ĠSur": 6902,
      "Ġviolence": 6903,
      "Ġselection": 6904,
      "licit": 6905,
      "Ġphone": 6906,
      "Ġ131": 6907,
      "Ġadapt": 6908,
      "oster": 6909,
      "Company": 6910,
      "REME": 6911,
      "Exhibit": 6912,
      "ĠMil": 6913,
      "Ġ1973": 6914,
      "OD": 6915,
      "ĠSaf": 6916,
      "Ġleasing": 6917,
      "aph": 6918,
      "Ġundersigned": 6919,
      "secured": 6920,
      "700": 6921,
      "Ġunconstitutional": 6922,
      "Ġplacement": 6923,
      "otive": 6924,
      "Ġfilm": 6925,
      "Ġparole": 6926,
      "Ġ1974": 6927,
      "Ġoccasion": 6928,
      "HL": 6929,
      "irit": 6930,
      "ĠYour": 6931,
      "Ġsuppress": 6932,
      "Ġmortg": 6933,
      "Ġ150": 6934,
      "atement": 6935,
      "Ġsplit": 6936,
      "ĠAgreements": 6937,
      "Ġminority": 6938,
      "Ġdiet": 6939,
      "TC": 6940,
      "ĠFord": 6941,
      "Ġlie": 6942,
      "Ġentering": 6943,
      "org": 6944,
      "Ġexpires": 6945,
      "ĠFranc": 6946,
      "illage": 6947,
      "Ġkid": 6948,
      "Ġforesee": 6949,
      "ament": 6950,
      "race": 6951,
      "ĠRetirement": 6952,
      "ĠPA": 6953,
      "interest": 6954,
      "Ġbelong": 6955,
      "REE": 6956,
      "ocr": 6957,
      "ĠEst": 6958,
      "Ġintellig": 6959,
      "Ġguarantee": 6960,
      "Ġprohibited": 6961,
      "uge": 6962,
      "ĠEN": 6963,
      "Ġfamilies": 6964,
      "Ġrefusal": 6965,
      "ĠCust": 6966,
      "Ġredeem": 6967,
      "xic": 6968,
      "Ġmom": 6969,
      "Ġbreat": 6970,
      "Ġconvinc": 6971,
      "osite": 6972,
      "ĠRoad": 6973,
      "Ġcommence": 6974,
      "cean": 6975,
      "Ġroll": 6976,
      "oration": 6977,
      "edia": 6978,
      "month": 6979,
      "ĠRESUL": 6980,
      "Ġassessed": 6981,
      "omb": 6982,
      "Ġcold": 6983,
      "filed": 6984,
      "Ġnurs": 6985,
      "Ġcrop": 6986,
      "Ġanticipates": 6987,
      "examination": 6988,
      "Ġpurchasing": 6989,
      "Ġowed": 6990,
      "rey": 6991,
      "Ġveget": 6992,
      "ĠSUPREME": 6993,
      "Ġmerchandise": 6994,
      "Ġsituations": 6995,
      "ĠNorthern": 6996,
      "Ġborn": 6997,
      "ĠDE": 6998,
      "Ġpunitive": 6999,
      "03": 7000,
      "ulating": 7001,
      "ANTS": 7002,
      "Ġeat": 7003,
      "ĠProcedure": 7004,
      "Ġolder": 7005,
      "ĠRate": 7006,
      "Ġfriends": 7007,
      "Ġobligated": 7008,
      "Ġturned": 7009,
      "oes": 7010,
      "view": 7011,
      "Ġzoning": 7012,
      "LY": 7013,
      "Ġnarrow": 7014,
      "ĠApproximately": 7015,
      "Ġpursue": 7016,
      "ĠSumm": 7017,
      "ĠGerman": 7018,
      "Ġcredibility": 7019,
      "ĠRealty": 7020,
      "osen": 7021,
      "Ġalleges": 7022,
      "ĠIncludes": 7023,
      "Ġclerk": 7024,
      "olf": 7025,
      "Ġvalued": 7026,
      "ĠLew": 7027,
      "Ġreductions": 7028,
      "Ġgoals": 7029,
      "olic": 7030,
      "ĠDi": 7031,
      "ram": 7032,
      "Ġdetails": 7033,
      "Ġinjunction": 7034,
      "Ġvessel": 7035,
      "Ġfle": 7036,
      "SFAS": 7037,
      "aken": 7038,
      "Ġcorporations": 7039,
      "Ġlabel": 7040,
      "idence": 7041,
      "ĠSubordinated": 7042,
      "withstanding": 7043,
      "rimination": 7044,
      "ĠInvestments": 7045,
      "Ġliquidation": 7046,
      "ĠYoung": 7047,
      "----------------": 7048,
      "Ġrefund": 7049,
      "win": 7050,
      "Ġoperators": 7051,
      "ius": 7052,
      "Ġinstallation": 7053,
      "Pro": 7054,
      "Ġpaint": 7055,
      "ĠHam": 7056,
      "ĠWind": 7057,
      "Ġteacher": 7058,
      "Ġvisit": 7059,
      "Ġsequ": 7060,
      "Ġsubdivision": 7061,
      "Ġinapp": 7062,
      "ĠRef": 7063,
      "Ġvoice": 7064,
      "ĠSand": 7065,
      "role": 7066,
      "Ġexamined": 7067,
      "ĠMem": 7068,
      "Ġfear": 7069,
      "Re": 7070,
      "ronics": 7071,
      "ĠCase": 7072,
      "Ġregardless": 7073,
      "Ġmechanism": 7074,
      "ĠMus": 7075,
      "key": 7076,
      "ĠHarris": 7077,
      "ague": 7078,
      "iers": 7079,
      "Ġdeg": 7080,
      "LA": 7081,
      "Ġoperational": 7082,
      "lines": 7083,
      "ĠAsia": 7084,
      "ĠLLP": 7085,
      "Ġtrees": 7086,
      "Ġfault": 7087,
      "ĠFAS": 7088,
      "Ġcoming": 7089,
      "vious": 7090,
      "ĠPC": 7091,
      "Ġindepend": 7092,
      "Ġforest": 7093,
      "ĠMy": 7094,
      "Ġtree": 7095,
      "Ġplastic": 7096,
      "omew": 7097,
      "pat": 7098,
      "Ġunderstood": 7099,
      "Ġec": 7100,
      "ĠAppellants": 7101,
      "Ġpunishment": 7102,
      "Ġconfidential": 7103,
      "Ġtrail": 7104,
      "ĠAgency": 7105,
      "Ġreversal": 7106,
      "Ġutilities": 7107,
      "Ġanyone": 7108,
      "ĠBond": 7109,
      "ĠGross": 7110,
      "Ġtransf": 7111,
      "Ġimpaired": 7112,
      "insured": 7113,
      "ĠFrance": 7114,
      "Ġlib": 7115,
      "Ġcontend": 7116,
      "heme": 7117,
      "Ġdoesn": 7118,
      "Ġprompt": 7119,
      "Ġdidn": 7120,
      "ĠUse": 7121,
      "sell": 7122,
      "ĠChurch": 7123,
      "Ġprocedural": 7124,
      "ĠManufact": 7125,
      "ĠDISC": 7126,
      "ertainment": 7127,
      "Ġcast": 7128,
      "rm": 7129,
      "ĠMcG": 7130,
      "ĠConvertible": 7131,
      "ĠGo": 7132,
      "ĠFound": 7133,
      "Ġrecovered": 7134,
      "Ġcitizens": 7135,
      "icide": 7136,
      "Ġinstances": 7137,
      "ĠHot": 7138,
      "Ġappearing": 7139,
      "ĠRay": 7140,
      "ĠMicro": 7141,
      "Ġappointment": 7142,
      "ĠRuss": 7143,
      "Ġpp": 7144,
      "Ġmisstatement": 7145,
      "ĠNAS": 7146,
      "Ġcapable": 7147,
      "Ġconnected": 7148,
      "ĠDefendants": 7149,
      "ĠIsra": 7150,
      "Ġ2018": 7151,
      "icit": 7152,
      "quoting": 7153,
      "Ġstockholder": 7154,
      "Ġleaving": 7155,
      "ĠSever": 7156,
      "fl": 7157,
      "aly": 7158,
      "Ġreligious": 7159,
      "Ġinfrastructure": 7160,
      "mphasis": 7161,
      "ĠOwnership": 7162,
      "Ġvit": 7163,
      "ĠTer": 7164,
      "Ġweb": 7165,
      "Ġadequately": 7166,
      "Continued": 7167,
      "Ġpromote": 7168,
      "ordin": 7169,
      "Ġperiodic": 7170,
      "cher": 7171,
      "Ġdealers": 7172,
      "Ġfine": 7173,
      "taining": 7174,
      "EAL": 7175,
      "ocol": 7176,
      "Ġadult": 7177,
      "Ġapparently": 7178,
      "Ġven": 7179,
      "ĠEQUITY": 7180,
      "ĠThen": 7181,
      "rust": 7182,
      "ĠJournal": 7183,
      "ography": 7184,
      "Ġratios": 7185,
      "ĠLocal": 7186,
      "roleum": 7187,
      "Ġproc": 7188,
      "ĠKn": 7189,
      "Ġsignal": 7190,
      "Ġprojected": 7191,
      "Ġgaming": 7192,
      "Ġrelates": 7193,
      "Ġrefers": 7194,
      "OME": 7195,
      "ĠFiled": 7196,
      "Ġillness": 7197,
      "Ġappearance": 7198,
      "ĠMcD": 7199,
      "Ġprecise": 7200,
      "ĠCamp": 7201,
      "Ġpenalties": 7202,
      "No": 7203,
      "Ġleaves": 7204,
      "orders": 7205,
      "Ġsupplied": 7206,
      "Ġdecedent": 7207,
      "Ġinstalled": 7208,
      "ibilities": 7209,
      "IP": 7210,
      "ecessor": 7211,
      "Ġsecret": 7212,
      "Ġpharmaceutical": 7213,
      "Ġinfring": 7214,
      "ĠStandard": 7215,
      "urban": 7216,
      "Ġidentity": 7217,
      "Ġmic": 7218,
      "ework": 7219,
      "Ġclosely": 7220,
      "Ġcredits": 7221,
      "Ġillust": 7222,
      "ĠRESULTS": 7223,
      "uter": 7224,
      "aign": 7225,
      "erring": 7226,
      "Ġsolid": 7227,
      "ĠEmployees": 7228,
      "Ġspecialty": 7229,
      "ĠColumbia": 7230,
      "Ġdivers": 7231,
      "ensity": 7232,
      "ĠTransactions": 7233,
      "DC": 7234,
      "ĠProceed": 7235,
      "Ġunn": 7236,
      "Ġclassification": 7237,
      "rix": 7238,
      "ĠOk": 7239,
      "Ġchallenged": 7240,
      "Ġdefici": 7241,
      "Ġchannels": 7242,
      "Ġtranscript": 7243,
      "can": 7244,
      "free": 7245,
      "Ġideas": 7246,
      "ĠVol": 7247,
      "ĠDistribution": 7248,
      "unk": 7249,
      "ss": 7250,
      "Ġhazardous": 7251,
      "ĠKenn": 7252,
      "Ġseparately": 7253,
      "Ġsubsection": 7254,
      "Ġunreasonable": 7255,
      "istry": 7256,
      "Ġexclusion": 7257,
      "ĠAfrica": 7258,
      "ĠCam": 7259,
      "ĠBE": 7260,
      "Ġevaluate": 7261,
      "eness": 7262,
      "ĠAnge": 7263,
      "Ġefficiency": 7264,
      "Ġbecoming": 7265,
      "Ġprofitability": 7266,
      "ĠIP": 7267,
      "MB": 7268,
      "ĠMARKET": 7269,
      "Ġinfection": 7270,
      "enger": 7271,
      "Ġlands": 7272,
      "Ġineffective": 7273,
      "RC": 7274,
      "ĠBook": 7275,
      "Ġsn": 7276,
      "FC": 7277,
      "Ġeast": 7278,
      "Ġevidentiary": 7279,
      "Ġheavy": 7280,
      "holding": 7281,
      "ĠSimil": 7282,
      "atin": 7283,
      "Ġparticipating": 7284,
      "Ġ#": 7285,
      "ĠRisk": 7286,
      "Ġremark": 7287,
      "Ġer": 7288,
      "Ġjoining": 7289,
      "Ġgold": 7290,
      "umin": 7291,
      "Ġtransition": 7292,
      "ĠTest": 7293,
      "Ġunlike": 7294,
      "Ġtrying": 7295,
      "Ġdeceased": 7296,
      "Ġburgl": 7297,
      "asive": 7298,
      "ĠHart": 7299,
      "ĠTitle": 7300,
      "Ġ1972": 7301,
      "Ġmutual": 7302,
      "Ġupd": 7303,
      "ĠDISCUS": 7304,
      "Ġgraph": 7305,
      "Ġhousehold": 7306,
      "Ġdanger": 7307,
      "ĠFort": 7308,
      "Ġabused": 7309,
      "Ġelectrical": 7310,
      "ady": 7311,
      "Ġones": 7312,
      "Ġmodify": 7313,
      "rogen": 7314,
      "Ġreinsurance": 7315,
      "ĠEquipment": 7316,
      "ĠBanks": 7317,
      "Ġunus": 7318,
      "ĠHuman": 7319,
      "ellectual": 7320,
      "Ġsupervis": 7321,
      "fill": 7322,
      "ĠJes": 7323,
      "Ġdaughter": 7324,
      "Ġmiddle": 7325,
      "Ġexposed": 7326,
      "ĠAccounts": 7327,
      "lete": 7328,
      "Ġcontractor": 7329,
      "ĠSpecific": 7330,
      "Ġresidents": 7331,
      "Ġresolved": 7332,
      "ĠSam": 7333,
      "Ġbankruptcy": 7334,
      "Ġgoes": 7335,
      "Ġchurch": 7336,
      "Ġlearned": 7337,
      "ĠAssembly": 7338,
      "Ġfit": 7339,
      "ils": 7340,
      "Ġdisagree": 7341,
      "Ġang": 7342,
      "Ġpeace": 7343,
      "71": 7344,
      "Ġunion": 7345,
      "Ġadvice": 7346,
      "Ġbears": 7347,
      "uls": 7348,
      "Ġeventually": 7349,
      "ropri": 7350,
      "ĠOCGA": 7351,
      "ĠCollege": 7352,
      "Ġoccurrence": 7353,
      "Ġpersu": 7354,
      "ST": 7355,
      "ola": 7356,
      "Ġtrib": 7357,
      "Ġclar": 7358,
      "iliated": 7359,
      "ĠEvidence": 7360,
      "ĠCosts": 7361,
      "Ġsuitable": 7362,
      "ĠEll": 7363,
      "Ġinflation": 7364,
      "eded": 7365,
      "Emphasis": 7366,
      "Ġsigns": 7367,
      "ĠIndex": 7368,
      "Ġtenants": 7369,
      "onald": 7370,
      "Ġwarranty": 7371,
      "ĠDISCUSSION": 7372,
      "ĠWH": 7373,
      "Ġscheme": 7374,
      "Ġarrived": 7375,
      "atever": 7376,
      "Ġquarters": 7377,
      "ront": 7378,
      "ĠDem": 7379,
      "Ġexceeded": 7380,
      "Ġexternal": 7381,
      "TORS": 7382,
      "Ġacid": 7383,
      "ĠRather": 7384,
      "ĠConstruction": 7385,
      "rete": 7386,
      "ogen": 7387,
      "Ġidentical": 7388,
      "Ġreplaced": 7389,
      "Ġsurvey": 7390,
      "apping": 7391,
      "04": 7392,
      "ĠTown": 7393,
      "arged": 7394,
      "uro": 7395,
      "Ġdefend": 7396,
      "olis": 7397,
      "Ġsatellite": 7398,
      "certain": 7399,
      "lf": 7400,
      "Ġresolve": 7401,
      "emphasis": 7402,
      "Ġformation": 7403,
      "Ġtalk": 7404,
      "iter": 7405,
      "itis": 7406,
      "Ġlots": 7407,
      "Ġglass": 7408,
      "Ġimproperly": 7409,
      "Ġobjects": 7410,
      "Ġstrike": 7411,
      "Ġsupplier": 7412,
      "Ġintegration": 7413,
      "Ġ93": 7414,
      "Ġstructures": 7415,
      "Ġuncertainties": 7416,
      "Ġemp": 7417,
      "Ġgrade": 7418,
      "Comm": 7419,
      "Ġmachines": 7420,
      "Ġregions": 7421,
      "ĠRepublic": 7422,
      "Ġtrends": 7423,
      "ĠDebt": 7424,
      "Ġunderwriting": 7425,
      "Ġimages": 7426,
      "iner": 7427,
      "Ġjurisdictions": 7428,
      "Ġbarred": 7429,
      "Ġfiber": 7430,
      "otic": 7431,
      "ette": 7432,
      "Ġconsumers": 7433,
      "ignment": 7434,
      "Ġinterf": 7435,
      "aneous": 7436,
      "Ġsuspect": 7437,
      "Ġexpertise": 7438,
      "Ġshared": 7439,
      "Ġarrested": 7440,
      "Ġkept": 7441,
      "ĠAdditional": 7442,
      "Ġkids": 7443,
      "Ġsummarized": 7444,
      "ossible": 7445,
      "Ġreclass": 7446,
      "ĠMoore": 7447,
      "ĠIsland": 7448,
      "Ġconsc": 7449,
      "ĠSheets": 7450,
      "Ġcertification": 7451,
      "Ġincur": 7452,
      "Ġforced": 7453,
      "Ġreliance": 7454,
      "Ġperhaps": 7455,
      "Ġfell": 7456,
      "Ġsecondary": 7457,
      "ĠFuture": 7458,
      "Ġhotel": 7459,
      "Ġproxy": 7460,
      "contract": 7461,
      "ounce": 7462,
      "Ġunsecured": 7463,
      "Ġmanufactures": 7464,
      "Ġcool": 7465,
      "ĠChanges": 7466,
      "Ġhumans": 7467,
      "perform": 7468,
      "oring": 7469,
      "ĠAdministrative": 7470,
      "ĠSupplemental": 7471,
      "Ġopinions": 7472,
      "Ġdemonstrated": 7473,
      "Ġrequests": 7474,
      "ĠConsequently": 7475,
      "ĠDani": 7476,
      "Ġallegedly": 7477,
      "Ġpractical": 7478,
      "Ġbattery": 7479,
      "Ġcontrovers": 7480,
      "ĠKe": 7481,
      "ĠKingdom": 7482,
      "Ġallocation": 7483,
      "Ġdeny": 7484,
      "Ġforeclosure": 7485,
      "],": 7486,
      "Ġcompetent": 7487,
      "abetes": 7488,
      "Ġexch": 7489,
      "Ġrare": 7490,
      "Ġspeech": 7491,
      "Ġacquiring": 7492,
      "Ġapprais": 7493,
      "Ġautomatically": 7494,
      "Ġabsent": 7495,
      "Ġtissue": 7496,
      "Ġinterested": 7497,
      "erman": 7498,
      "Ġprotein": 7499,
      "Ġdark": 7500,
      "Ġlegally": 7501,
      "ĠIL": 7502,
      "lord": 7503,
      "lection": 7504,
      "ĠIssu": 7505,
      "ĠSUPP": 7506,
      "Ġofficials": 7507,
      "Ġready": 7508,
      "ĠPU": 7509,
      "Ġteaching": 7510,
      "Ġ:": 7511,
      "ROM": 7512,
      "900": 7513,
      "prises": 7514,
      "ĠDu": 7515,
      "lam": 7516,
      "life": 7517,
      "ĠCA": 7518,
      "www": 7519,
      "ĠAllen": 7520,
      "ĠIndeed": 7521,
      "Ġsharing": 7522,
      "Ġsupervision": 7523,
      "ĠTod": 7524,
      "erved": 7525,
      "Ġseverance": 7526,
      "ĠSil": 7527,
      "reedom": 7528,
      "top": 7529,
      "Ġbit": 7530,
      "utory": 7531,
      "Ġacceptable": 7532,
      "ĠORS": 7533,
      "Ġphrase": 7534,
      "Ġdetermines": 7535,
      "Ġdisturb": 7536,
      "Ġwarehouse": 7537,
      "Ġexperts": 7538,
      "ĠCommissioner": 7539,
      "Ġthousand": 7540,
      "OM": 7541,
      "Ġexclus": 7542,
      "ologist": 7543,
      "Ġresponded": 7544,
      "Ġ71": 7545,
      "Ġweapon": 7546,
      "Ġenhanced": 7547,
      "Ġcommod": 7548,
      "Ġ250": 7549,
      "Ġmemor": 7550,
      "ĠLewis": 7551,
      "Ġconsec": 7552,
      "Ġfiles": 7553,
      "Ġemissions": 7554,
      "Ġwireless": 7555,
      "heast": 7556,
      "ĠSP": 7557,
      "ĠGulf": 7558,
      "Ġcreation": 7559,
      "Ġneighbor": 7560,
      "Ġclos": 7561,
      "Ġcorresponding": 7562,
      "elfare": 7563,
      "ĠBY": 7564,
      "125": 7565,
      "ike": 7566,
      "Ġdealing": 7567,
      "Ġdisclosed": 7568,
      "Ġlaboratory": 7569,
      "Ġpatterns": 7570,
      "ĠRad": 7571,
      "IA": 7572,
      "atories": 7573,
      "ĠSHARE": 7574,
      "Ġexempt": 7575,
      "Ġnewsp": 7576,
      "Ġassuming": 7577,
      "ĠINTER": 7578,
      "ĠFL": 7579,
      "za": 7580,
      "Ġantib": 7581,
      "OG": 7582,
      "Ġdestroy": 7583,
      "Ġsomew": 7584,
      "ĠAfrican": 7585,
      "Ġshooting": 7586,
      "Ġmobile": 7587,
      "ICI": 7588,
      "Ġexploration": 7589,
      "ĠGrand": 7590,
      "].": 7591,
      "ompson": 7592,
      "ĠReview": 7593,
      "mond": 7594,
      "ĠGrant": 7595,
      "ĠCoast": 7596,
      "Ġintangible": 7597,
      "ĠGenerally": 7598,
      "rum": 7599,
      "Ġment": 7600,
      "Ġslightly": 7601,
      "from": 7602,
      "ita": 7603,
      "Ġtrave": 7604,
      "ux": 7605,
      "ĠMess": 7606,
      "onsin": 7607,
      "ka": 7608,
      "Ġunrealized": 7609,
      "ualty": 7610,
      "Ġwrongful": 7611,
      "Ġborrower": 7612,
      "Ġincreasingly": 7613,
      "isting": 7614,
      "Ġfinds": 7615,
      "ache": 7616,
      "Ġ1971": 7617,
      "Ġencount": 7618,
      "ĠANAL": 7619,
      "Ġnonc": 7620,
      "ĠInstr": 7621,
      "Ġdifficulty": 7622,
      "ĠRelations": 7623,
      "Ġvolat": 7624,
      "isconsin": 7625,
      "Ġice": 7626,
      "Ġaccrual": 7627,
      "abled": 7628,
      "ĠAvenue": 7629,
      "ĠTheir": 7630,
      "Ġcompetes": 7631,
      "rose": 7632,
      "Ġexcessive": 7633,
      "ded": 7634,
      "Ġcancell": 7635,
      "Ġregularly": 7636,
      "Ġassumption": 7637,
      "Ġphysicians": 7638,
      "stone": 7639,
      "Ġadults": 7640,
      "Ġtask": 7641,
      "ĠDun": 7642,
      "Ġ2019": 7643,
      "Ġutilize": 7644,
      "Ġwinter": 7645,
      "Ġroutine": 7646,
      "ĠWat": 7647,
      "Ġsolar": 7648,
      "ĠHunt": 7649,
      "Ġforeseeable": 7650,
      "Ġunlawful": 7651,
      "ĠMaster": 7652,
      "Ġinitiated": 7653,
      "ortion": 7654,
      "hearing": 7655,
      "ĠTRANS": 7656,
      "Ġriver": 7657,
      "Management": 7658,
      "Ġoverruled": 7659,
      "lication": 7660,
      "Ġpromissory": 7661,
      "ĠGlobal": 7662,
      "ĠLear": 7663,
      "ĠKel": 7664,
      "Ġsubscrib": 7665,
      "ĠHa": 7666,
      "YSIS": 7667,
      "Ġinterpre": 7668,
      "Ġbag": 7669,
      "bar": 7670,
      "orough": 7671,
      "Ġsea": 7672,
      "unto": 7673,
      "Ġimmune": 7674,
      "Ġunivers": 7675,
      "Ġinvesting": 7676,
      "Ġreviews": 7677,
      "ĠPlant": 7678,
      "cluding": 7679,
      "rimin": 7680,
      "Ġabsor": 7681,
      "Ġinability": 7682,
      "ĠAtlantic": 7683,
      "Ġ66": 7684,
      "half": 7685,
      "Ġfract": 7686,
      "Ġfinally": 7687,
      "ĠThompson": 7688,
      "Ġofferings": 7689,
      "ĠANALYSIS": 7690,
      "Ġattempts": 7691,
      "Ġbudget": 7692,
      "Ġmolec": 7693,
      "sect": 7694,
      "Ġperforming": 7695,
      "xi": 7696,
      "imm": 7697,
      "erly": 7698,
      "ĠAccountants": 7699,
      "Ġaggravated": 7700,
      "Ġhandling": 7701,
      "DS": 7702,
      "ĠRail": 7703,
      "ĠChristian": 7704,
      "ERC": 7705,
      "Ġforfe": 7706,
      "note": 7707,
      "Int": 7708,
      "pective": 7709,
      "adequ": 7710,
      "ads": 7711,
      "06": 7712,
      "Ġhereto": 7713,
      "Ġessentially": 7714,
      "Ġcry": 7715,
      "Ġanticipate": 7716,
      "ĠDIR": 7717,
      "Ġrapidly": 7718,
      "ĠEarnings": 7719,
      "Ġbonus": 7720,
      "ĠPartnerships": 7721,
      "ĠAG": 7722,
      "Ġwholesale": 7723,
      "Ġcertainly": 7724,
      "ĠPhase": 7725,
      "ĠBen": 7726,
      "degree": 7727,
      "rieved": 7728,
      "eller": 7729,
      "Ġexamine": 7730,
      "Ġjudgments": 7731,
      "Ġ62": 7732,
      "Ġbus": 7733,
      "ĠTreasurer": 7734,
      "vin": 7735,
      "Ġpointed": 7736,
      "ĠBuilding": 7737,
      "ĠMaryland": 7738,
      "Ġregulated": 7739,
      "Ġwebsite": 7740,
      "Ġanalyz": 7741,
      "Ġperfect": 7742,
      "Ġ96": 7743,
      "ewise": 7744,
      "ĠOrgan": 7745,
      "Ġaccompl": 7746,
      "Ġcam": 7747,
      "Ġinventories": 7748,
      "Ġmeant": 7749,
      "ĠParent": 7750,
      "Ġpicture": 7751,
      "entional": 7752,
      "ĠNatural": 7753,
      "Ġbid": 7754,
      "Ġconce": 7755,
      "Ġpublicly": 7756,
      "Ġeverything": 7757,
      "worth": 7758,
      "Ġdisorder": 7759,
      "Ġattend": 7760,
      "81": 7761,
      "ĠWisconsin": 7762,
      "ĠHOLD": 7763,
      "greg": 7764,
      "CLOS": 7765,
      "iliar": 7766,
      "ĠTri": 7767,
      "Ġextremely": 7768,
      "Ġ__": 7769,
      "HA": 7770,
      "Ġutilization": 7771,
      "Ġeyes": 7772,
      "Ġ115": 7773,
      "72": 7774,
      "unct": 7775,
      "never": 7776,
      "ĠEPA": 7777,
      "opy": 7778,
      "met": 7779,
      "Ġheadquarters": 7780,
      "Ġconstructed": 7781,
      "Ġparking": 7782,
      "Ind": 7783,
      "partments": 7784,
      "iling": 7785,
      "arian": 7786,
      "ker": 7787,
      "Ġaccurate": 7788,
      "ĠMcK": 7789,
      "ĠNone": 7790,
      "Ġspect": 7791,
      "DITION": 7792,
      "regard": 7793,
      "Ġintellectual": 7794,
      "ĠSen": 7795,
      "Ġunnecess": 7796,
      "Ġ2020": 7797,
      "Ġagricultural": 7798,
      "zz": 7799,
      "ta": 7800,
      "Ġrecip": 7801,
      "Ġreasoning": 7802,
      "Ġconsumption": 7803,
      "ĠMutual": 7804,
      "Ġrace": 7805,
      "ĠArch": 7806,
      "Ġdisciplinary": 7807,
      "ĠRem": 7808,
      "Ġ72": 7809,
      "Ġequally": 7810,
      "Ġwilling": 7811,
      "eder": 7812,
      "Ġcellular": 7813,
      "Ġcollective": 7814,
      "Ġcommencing": 7815,
      "Ġdelinqu": 7816,
      "Ġcontempt": 7817,
      "Ġsensitive": 7818,
      "LEMENT": 7819,
      "ĠINCOME": 7820,
      "Ġremember": 7821,
      "PL": 7822,
      "Ġtreas": 7823,
      "Ġpregn": 7824,
      "Ġobjectives": 7825,
      "Ġforces": 7826,
      "ĠAmount": 7827,
      "ĠDepos": 7828,
      "Ġcomments": 7829,
      "Ġtub": 7830,
      "Ġpump": 7831,
      "Ġintroduce": 7832,
      "arp": 7833,
      "ĠCommunity": 7834,
      "Ġexpectations": 7835,
      "Ġthinking": 7836,
      "ĠBroad": 7837,
      "Ġintend": 7838,
      "iny": 7839,
      "anches": 7840,
      "ding": 7841,
      "Ġnovo": 7842,
      "'re": 7843,
      "ommod": 7844,
      "Ġsuc": 7845,
      "96": 7846,
      "Ġalt": 7847,
      "Ġchain": 7848,
      "Ġ64": 7849,
      "ĠDISCLOS": 7850,
      "Ġprepare": 7851,
      "Ġfresh": 7852,
      "Ġhospitals": 7853,
      "ĠSIGN": 7854,
      "Ġfeature": 7855,
      "Ġthereunto": 7856,
      "Ġsurplus": 7857,
      "uana": 7858,
      "SON": 7859,
      "ĠCooper": 7860,
      "oen": 7861,
      "Ġconversation": 7862,
      "Ġrepayment": 7863,
      "Ġobvious": 7864,
      "Ġformula": 7865,
      "ĠSant": 7866,
      "Ġvisual": 7867,
      "ĠDeputy": 7868,
      "net": 7869,
      "Ġbackground": 7870,
      "Ġunfair": 7871,
      "Ġassessments": 7872,
      "Ġstre": 7873,
      "Ġvictims": 7874,
      "Ġcycle": 7875,
      "ĠBorrower": 7876,
      "aste": 7877,
      "Ġenterprise": 7878,
      "ĠNRS": 7879,
      "eding": 7880,
      "ĠSchedules": 7881,
      "ĠShort": 7882,
      "Ġremote": 7883,
      "Ġjail": 7884,
      "useum": 7885,
      "ĠAlex": 7886,
      "ureau": 7887,
      "Ġvoluntarily": 7888,
      "Ġproduces": 7889,
      "ĠCHAN": 7890,
      "ĠFourth": 7891,
      "citing": 7892,
      "ĠDIREC": 7893,
      "icially": 7894,
      "Ġ63": 7895,
      "aling": 7896,
      "ĠPARTNERS": 7897,
      "Ġcharacterized": 7898,
      "Ġmedium": 7899,
      "Ġhttp": 7900,
      "ĠTechnologies": 7901,
      "rugg": 7902,
      "amework": 7903,
      "elled": 7904,
      "Ġmining": 7905,
      "Ġinception": 7906,
      "Ġoccupancy": 7907,
      "Ġsubstances": 7908,
      "ĠREPORTS": 7909,
      "ĠHenry": 7910,
      "ĠWall": 7911,
      "1979": 7912,
      "Ġchancellor": 7913,
      "rell": 7914,
      "Ġvesting": 7915,
      "Ġhabeas": 7916,
      "hy": 7917,
      "Ġpiece": 7918,
      "olved": 7919,
      "Ġhair": 7920,
      "ĠActual": 7921,
      "elson": 7922,
      "ĠTen": 7923,
      "stein": 7924,
      "Ġparticipant": 7925,
      "pass": 7926,
      "ĠHistor": 7927,
      "Ġdesigns": 7928,
      "ĠPress": 7929,
      "Ġstopped": 7930,
      "Rev": 7931,
      "Ġhereof": 7932,
      "76": 7933,
      "asers": 7934,
      "Ġmortgages": 7935,
      "Ġ)": 7936,
      "Ġparental": 7937,
      "ancery": 7938,
      "Ġproxim": 7939,
      "ĠCross": 7940,
      "ĠâĢ¢": 7941,
      "Ġuniform": 7942,
      "ĠDespite": 7943,
      "Ġsupplemental": 7944,
      "rence": 7945,
      "inery": 7946,
      "othes": 7947,
      "da": 7948,
      "Ġinterstate": 7949,
      "EE": 7950,
      "Ġcoast": 7951,
      "ĠPrem": 7952,
      "ĠTennessee": 7953,
      "irs": 7954,
      "Ġgenerating": 7955,
      "Ġ400": 7956,
      "Ġexplicit": 7957,
      "Ġcampaign": 7958,
      "ollars": 7959,
      "ĠMotor": 7960,
      "uable": 7961,
      "Ġaccommod": 7962,
      "Ġbargaining": 7963,
      "Ġ=": 7964,
      "iences": 7965,
      "ĠOTS": 7966,
      "Ġlender": 7967,
      "Ġjustify": 7968,
      "roller": 7969,
      "apolis": 7970,
      "ests": 7971,
      "Ġmainly": 7972,
      "Ġinstallments": 7973,
      "NE": 7974,
      "ĠAsset": 7975,
      "collect": 7976,
      "1980": 7977,
      "Ġsaying": 7978,
      "73": 7979,
      "ĠPOL": 7980,
      "Ġfrequency": 7981,
      "Ġnormally": 7982,
      "ĠNW": 7983,
      "Ġdisclose": 7984,
      "Ġarbitr": 7985,
      "Ġfields": 7986,
      "ĠINS": 7987,
      "ĠProtection": 7988,
      "itative": 7989,
      "Ġfigure": 7990,
      "Ġmisrepresent": 7991,
      "icks": 7992,
      "Ġjudges": 7993,
      "Ġtot": 7994,
      "ĠPres": 7995,
      "Ġoptim": 7996,
      "FORM": 7997,
      "Ġcomputers": 7998,
      "Ġ106": 7999,
      "Mo": 8000,
      "ifiable": 8001,
      "Ġdevelopments": 8002,
      "ĠMad": 8003,
      "94": 8004,
      "Ġchemicals": 8005,
      "Ġburglary": 8006,
      "Ġgar": 8007,
      "ĠSociety": 8008,
      "Ġestablishment": 8009,
      "Ġsugar": 8010,
      "Ġunusual": 8011,
      "ĠJustices": 8012,
      "erclaim": 8013,
      "liant": 8014,
      "ean": 8015,
      "vals": 8016,
      "Ġrehab": 8017,
      "ĠACCOUNTANTS": 8018,
      "Ġsynd": 8019,
      "ĠPan": 8020,
      "ĠBEN": 8021,
      "ĠJudgment": 8022,
      "omer": 8023,
      "93": 8024,
      "Ġspirit": 8025,
      "ĠInit": 8026,
      "oln": 8027,
      "inder": 8028,
      "Ġrig": 8029,
      "Ġmoment": 8030,
      "Ġ92": 8031,
      "ĠIsrael": 8032,
      "Ġexamples": 8033,
      "Ġrock": 8034,
      "alle": 8035,
      "Ġdissenting": 8036,
      "Ġexpensed": 8037,
      "Ġimper": 8038,
      "rich": 8039,
      "ears": 8040,
      "eer": 8041,
      "Ġmotiv": 8042,
      "86": 8043,
      "Ġacad": 8044,
      "Ġhappened": 8045,
      "Ġtested": 8046,
      "Ġdisapp": 8047,
      "Ġpipeline": 8048,
      "Ġpublication": 8049,
      "Ġancient": 8050,
      "GES": 8051,
      "ECU": 8052,
      "ĠOFFIC": 8053,
      "Ġexplanation": 8054,
      "ĠSix": 8055,
      "Ġintr": 8056,
      "Ġnom": 8057,
      "ĠKRS": 8058,
      "Ġresource": 8059,
      "ounded": 8060,
      "Ġspending": 8061,
      "Ġ1969": 8062,
      "IBOR": 8063,
      "Ġ91": 8064,
      "Ġbinding": 8065,
      "ressed": 8066,
      "Ġarmed": 8067,
      "Ġqualify": 8068,
      "Ġ125": 8069,
      "Ġpleadings": 8070,
      "Ġwall": 8071,
      "Ġhistorically": 8072,
      "ĠPUBL": 8073,
      "Ġdegrees": 8074,
      "Ġrepairs": 8075,
      "TY": 8076,
      "point": 8077,
      "Ġcorp": 8078,
      "ION": 8079,
      "Ġchance": 8080,
      "ĠFire": 8081,
      "Ġ76": 8082,
      "mat": 8083,
      "92": 8084,
      "ardy": 8085,
      "ĠTrad": 8086,
      "ruption": 8087,
      "eenth": 8088,
      "SE": 8089,
      "Ġharmless": 8090,
      "Ġmission": 8091,
      "Ġreliable": 8092,
      "Ġdiscretionary": 8093,
      "Ġfelt": 8094,
      "Ġdistinguish": 8095,
      "Ġprevailing": 8096,
      "Ġcondemn": 8097,
      "ĠSUPPLEMENT": 8098,
      "Ġimag": 8099,
      "ĠSignificant": 8100,
      "rations": 8101,
      "lan": 8102,
      "Ġnecessity": 8103,
      "Ġwidely": 8104,
      "Ġx": 8105,
      "olitan": 8106,
      "750": 8107,
      "Ġtrain": 8108,
      "Ġviolate": 8109,
      "ĠAmong": 8110,
      "ĠRog": 8111,
      "Ġ94": 8112,
      "Ġrepro": 8113,
      "ĠPen": 8114,
      "Ġrailroad": 8115,
      "Ġrevealed": 8116,
      "mes": 8117,
      "isco": 8118,
      "74": 8119,
      "making": 8120,
      "ĠJapanese": 8121,
      "Ġdatabase": 8122,
      "Ġinference": 8123,
      "Ġwor": 8124,
      "Ġbodies": 8125,
      "Ġben": 8126,
      "Ġreorganization": 8127,
      "ĠCap": 8128,
      "Ġdifficulties": 8129,
      "Ġdistinction": 8130,
      "Ġincomp": 8131,
      "ashion": 8132,
      "ĠREV": 8133,
      "Ġswitch": 8134,
      "ĠSTOCKHOLD": 8135,
      "Ġspot": 8136,
      "ĠEXHI": 8137,
      "ANDS": 8138,
      "Ġ84": 8139,
      "Ġinnoc": 8140,
      "Ġarticles": 8141,
      "Ġimpossible": 8142,
      "ĠSocial": 8143,
      "Ġ81": 8144,
      "uling": 8145,
      "Ġflood": 8146,
      "Ġsatisfaction": 8147,
      "ĠThree": 8148,
      "ĠTim": 8149,
      "Ġdelays": 8150,
      "Ġsufficiently": 8151,
      "ĠâĢķ": 8152,
      "ynam": 8153,
      "bo": 8154,
      "Ġtheft": 8155,
      "Ġsample": 8156,
      "isher": 8157,
      "zy": 8158,
      "Ġclaiming": 8159,
      "Ġtwice": 8160,
      "102": 8161,
      "ĠSC": 8162,
      "Ġrape": 8163,
      "Ġindividually": 8164,
      "ĠGR": 8165,
      "Ġtrou": 8166,
      "ords": 8167,
      "101": 8168,
      "ĠMedicare": 8169,
      "Americ": 8170,
      "lected": 8171,
      "Ġventures": 8172,
      "Ġfirms": 8173,
      "ĠAmericans": 8174,
      "Ġpollution": 8175,
      "Ġcultural": 8176,
      "Ġunsu": 8177,
      "Ġeliminate": 8178,
      "ĠLiber": 8179,
      "uity": 8180,
      "ĠChildren": 8181,
      "Ġmarital": 8182,
      "essions": 8183,
      "THER": 8184,
      "acent": 8185,
      "ĠLet": 8186,
      "Ġ83": 8187,
      "ĠProfessional": 8188,
      "ĠMit": 8189,
      "ĠSpecifically": 8190,
      "ĠOm": 8191,
      "ĠCASH": 8192,
      "Ġexpression": 8193,
      "Ġlitig": 8194,
      "emiconduct": 8195,
      "Ġvot": 8196,
      "Ġ86": 8197,
      "Ġdiscipline": 8198,
      "Ġinterrog": 8199,
      "Ġrecording": 8200,
      "Ġcreates": 8201,
      "Ġretired": 8202,
      "Ġprecedent": 8203,
      "84": 8204,
      "ĠCOMMON": 8205,
      "ĠClaim": 8206,
      "Ġconcentration": 8207,
      "ĠConf": 8208,
      "ĠBrook": 8209,
      "ĠCook": 8210,
      "Ġexemption": 8211,
      "ressive": 8212,
      "Ġgames": 8213,
      "orrect": 8214,
      "Ġdeclaratory": 8215,
      "Ġmig": 8216,
      "ĠAuthority": 8217,
      "Ġcalculation": 8218,
      "Ġisol": 8219,
      "Ġcontemplated": 8220,
      "ĠFA": 8221,
      "ĠJur": 8222,
      "Ġinterpreted": 8223,
      "1978": 8224,
      "Ġdeclaration": 8225,
      "ĠTransport": 8226,
      "Ġtaxpay": 8227,
      "Ġbacteria": 8228,
      "Ġfirearm": 8229,
      "PR": 8230,
      "mosp": 8231,
      "Ġfurnished": 8232,
      "incoln": 8233,
      "Ġobjected": 8234,
      "ĠVan": 8235,
      "Ġegg": 8236,
      "gical": 8237,
      "ĠBud": 8238,
      "idance": 8239,
      "Ġrepaid": 8240,
      "ĠRepresent": 8241,
      "ĠInvent": 8242,
      "Ġmarketed": 8243,
      "Ġencourage": 8244,
      "Ġfemale": 8245,
      "serv": 8246,
      "ailable": 8247,
      "ĠCONDITION": 8248,
      "ĠExcept": 8249,
      "Ġperpet": 8250,
      "Ġfoundation": 8251,
      "Ġrain": 8252,
      "rison": 8253,
      "Ġexperiences": 8254,
      "ijuana": 8255,
      "Ġcounterclaim": 8256,
      "ĠNeither": 8257,
      "ĠRy": 8258,
      "Ġconsiderations": 8259,
      "Ġthreatened": 8260,
      "Ġanalog": 8261,
      "Ġguide": 8262,
      "Ġvirus": 8263,
      "Ġexceeds": 8264,
      "Ġcomplic": 8265,
      "rian": 8266,
      "Ġphil": 8267,
      "PI": 8268,
      "ĠGar": 8269,
      "Ġadding": 8270,
      "PT": 8271,
      "ITIES": 8272,
      "Ġrefusing": 8273,
      "ĠCD": 8274,
      "Ġspring": 8275,
      "inese": 8276,
      "BIT": 8277,
      "Ġcruc": 8278,
      "ĠWright": 8279,
      "Ġuncertainty": 8280,
      "ĠJesus": 8281,
      "sale": 8282,
      "Ġwhatever": 8283,
      "Ġviews": 8284,
      "Ġcomparison": 8285,
      "Ġsucceed": 8286,
      "uced": 8287,
      "OT": 8288,
      "amine": 8289,
      "Ġgenetic": 8290,
      "ĠFred": 8291,
      "Ġ82": 8292,
      "Ġpreserve": 8293,
      "Ġacknowledged": 8294,
      "glas": 8295,
      "Ġdriven": 8296,
      "Ġlegit": 8297,
      "Ġdesire": 8298,
      "laws": 8299,
      "UM": 8300,
      "83": 8301,
      "OTE": 8302,
      "Ġdisregard": 8303,
      "ĠHistory": 8304,
      "ĠPeriod": 8305,
      "Ġonto": 8306,
      "If": 8307,
      "Ġleverage": 8308,
      "Ġpurchaser": 8309,
      "ĠWalk": 8310,
      "iduc": 8311,
      "ĠNever": 8312,
      "Ġascertain": 8313,
      "HN": 8314,
      "ĠSA": 8315,
      "Ġpostretirement": 8316,
      "ulp": 8317,
      "Ġshopping": 8318,
      "ounted": 8319,
      "Ġmarried": 8320,
      "ĠSummary": 8321,
      "pth": 8322,
      "Ġfruit": 8323,
      "ĠCL": 8324,
      "iley": 8325,
      "ĠLicense": 8326,
      "Ġmanagers": 8327,
      "ĠFORM": 8328,
      "Ġpermission": 8329,
      "ĠUK": 8330,
      "Ġcars": 8331,
      "Ġopposed": 8332,
      "Ky": 8333,
      "ĠPlans": 8334,
      "ĠAbout": 8335,
      "Ġsch": 8336,
      "Ġmature": 8337,
      "ULES": 8338,
      "ISSION": 8339,
      "stantial": 8340,
      "Ġviewed": 8341,
      "1977": 8342,
      "ĠValue": 8343,
      "Ġcommissioner": 8344,
      "Ġswap": 8345,
      "Ġprint": 8346,
      "ĠEngineering": 8347,
      "Ġcogn": 8348,
      "ĠVII": 8349,
      "ĠJac": 8350,
      "IFIC": 8351,
      "Ġproposal": 8352,
      "ĠConst": 8353,
      "continued": 8354,
      "Ġshape": 8355,
      "Ġdemands": 8356,
      "ropolitan": 8357,
      "OUSANDS": 8358,
      "Ġpref": 8359,
      "Ġnegotiations": 8360,
      "Ġusage": 8361,
      "Ġeating": 8362,
      "Ġbaby": 8363,
      "ĠLincoln": 8364,
      "Ġinject": 8365,
      "Ġ1960": 8366,
      "Ġstrugg": 8367,
      "Ġanswers": 8368,
      "Ġinspection": 8369,
      "ĠBre": 8370,
      "Ġreflecting": 8371,
      "ĠBa": 8372,
      "eces": 8373,
      "ĠDebentures": 8374,
      "ĠChemical": 8375,
      "Ġconcluding": 8376,
      "Ġflat": 8377,
      "ny": 8378,
      "Ġactively": 8379,
      "Ġexplore": 8380,
      "ume": 8381,
      "ĠFlows": 8382,
      "Ġreadily": 8383,
      "ball": 8384,
      "Ġ101": 8385,
      "Ġexpired": 8386,
      "agon": 8387,
      "ĠPhill": 8388,
      "ĠPetitioner": 8389,
      "hetic": 8390,
      "Ġdrop": 8391,
      "Ġdiabetes": 8392,
      "Ġwatch": 8393,
      "Ġstim": 8394,
      "vi": 8395,
      "itc": 8396,
      "anish": 8397,
      "Ġmedicine": 8398,
      "sider": 8399,
      "82": 8400,
      "market": 8401,
      "Ġshift": 8402,
      "Ġdefine": 8403,
      "1982": 8404,
      "ĠLy": 8405,
      "âĢĿ.": 8406,
      "ĠCreek": 8407,
      "Ġblue": 8408,
      "---": 8409,
      "Ġbases": 8410,
      "Ġpermitting": 8411,
      "izable": 8412,
      "Ġvision": 8413,
      "backed": 8414,
      "Ġconducting": 8415,
      "ĠInstruments": 8416,
      "Ġnotified": 8417,
      "Ġanswered": 8418,
      "Ġtradition": 8419,
      "ario": 8420,
      "Ġinadequ": 8421,
      "ĠKey": 8422,
      "Iowa": 8423,
      "HS": 8424,
      "Ġframework": 8425,
      "ITED": 8426,
      "Ġstruck": 8427,
      "asks": 8428,
      "Ġmov": 8429,
      "ĠThereafter": 8430,
      "Ġcoc": 8431,
      "ĠDid": 8432,
      "ancel": 8433,
      "Ġsuffering": 8434,
      "Ġunnecessary": 8435,
      "Ġyouth": 8436,
      "Ġmouth": 8437,
      "Ġ___": 8438,
      "ĠChange": 8439,
      "Ġescrow": 8440,
      "1984": 8441,
      "Ġemphasis": 8442,
      "Ġspecialized": 8443,
      "ĠEXECU": 8444,
      "Ġdial": 8445,
      "Ġrecommendation": 8446,
      "ostic": 8447,
      "Ġcontinuous": 8448,
      "Ġleads": 8449,
      "Ġdissolution": 8450,
      "ilitation": 8451,
      "ht": 8452,
      "Ġeveryone": 8453,
      "ĠStan": 8454,
      "Ġdiscrimination": 8455,
      "Ġbone": 8456,
      "aver": 8457,
      "Ġprofessionals": 8458,
      "ĠLaws": 8459,
      "Ġscen": 8460,
      "amus": 8461,
      "Ġcomplain": 8462,
      "load": 8463,
      "Ġfamiliar": 8464,
      "Ġproposition": 8465,
      "Ġcele": 8466,
      "lets": 8467,
      "Ġinterm": 8468,
      "Ġ+": 8469,
      "ĠNumber": 8470,
      "Ġdiagnosis": 8471,
      "Ġprobate": 8472,
      "Ġcolon": 8473,
      "ĠEastern": 8474,
      "Ġimposition": 8475,
      "ĠDouglas": 8476,
      "Ġ1968": 8477,
      "Ġbacklog": 8478,
      "OLL": 8479,
      "Ġbehavi": 8480,
      "ĠAutom": 8481,
      "Ġdescribe": 8482,
      "ĠMatters": 8483,
      "Ġcarefully": 8484,
      "ĠCole": 8485,
      "orial": 8486,
      "otics": 8487,
      "ĠBENEF": 8488,
      "Ġlooked": 8489,
      "thur": 8490,
      "Ġbegins": 8491,
      "med": 8492,
      "Ġwages": 8493,
      "ĠAB": 8494,
      "Ġbreast": 8495,
      "Ġseasonal": 8496,
      "Ġlawsuits": 8497,
      "eman": 8498,
      "lined": 8499,
      "91": 8500,
      "aped": 8501,
      "Ġinad": 8502,
      "ĠFre": 8503,
      "Ġreform": 8504,
      "Ġmarijuana": 8505,
      "ĠFe": 8506,
      "Ġguidance": 8507,
      "ĠPharm": 8508,
      "1976": 8509,
      "Ġmale": 8510,
      "Ġmap": 8511,
      "ĠStar": 8512,
      "Ġutilizing": 8513,
      "Ġapprovals": 8514,
      "Ġadjacent": 8515,
      "Ġremedies": 8516,
      "ested": 8517,
      "Ġspouse": 8518,
      "Ġhears": 8519,
      "ĠTHOUSANDS": 8520,
      "Ġearning": 8521,
      "INGS": 8522,
      "Ġarose": 8523,
      "Ġpackaging": 8524,
      "Ġindirectly": 8525,
      "Ġdiscounted": 8526,
      "ĠWay": 8527,
      "Ġbranches": 8528,
      "ĠEdward": 8529,
      "ĠIC": 8530,
      "Ġstarting": 8531,
      "ĠLos": 8532,
      "Ġcomputing": 8533,
      "Ġvarying": 8534,
      "ĠMel": 8535,
      "Ġdedicated": 8536,
      "Ġ74": 8537,
      "rient": 8538,
      "Ġweigh": 8539,
      "FS": 8540,
      "person": 8541,
      "ĠSoftware": 8542,
      "Ġphotographs": 8543,
      "Ġattempting": 8544,
      "Ġfacilitate": 8545,
      "Ġrot": 8546,
      "ĠChinese": 8547,
      "Ġmillions": 8548,
      "Ġdeter": 8549,
      "Ġpassenger": 8550,
      "Ġdeposition": 8551,
      "Stat": 8552,
      "Ġterritory": 8553,
      "family": 8554,
      "Ġoccurring": 8555,
      "ĠMO": 8556,
      "Ġborrowed": 8557,
      "Ġkeeping": 8558,
      "Ġchart": 8559,
      "ĠYEARS": 8560,
      "ĠRevolving": 8561,
      "ĠMir": 8562,
      "Ġsubstantive": 8563,
      "xygen": 8564,
      "Ġgene": 8565,
      "ĠLoss": 8566,
      "ERV": 8567,
      "andum": 8568,
      "iduciary": 8569,
      "urit": 8570,
      "Ġquantities": 8571,
      "Ġasking": 8572,
      "ĠOnly": 8573,
      "Ġpowerful": 8574,
      "ethe": 8575,
      "ĠDesign": 8576,
      "Ġintercompany": 8577,
      "Ġnegotiated": 8578,
      "Ġpi": 8579,
      "ĠWorkers": 8580,
      "Ġreliability": 8581,
      "Ġhit": 8582,
      "ĠSubsidiary": 8583,
      "IFICANT": 8584,
      "Ġhope": 8585,
      "Ġpray": 8586,
      "hemat": 8587,
      "ifteen": 8588,
      "Ġroyalties": 8589,
      "Ġawareness": 8590,
      "posed": 8591,
      "Ġfurniture": 8592,
      "ĠSimilarly": 8593,
      "Ġmeasurement": 8594,
      "Ġquotation": 8595,
      "Ġrevised": 8596,
      "ĠTime": 8597,
      "Ġsuffer": 8598,
      "bre": 8599,
      "Ġprivacy": 8600,
      "ĠLyn": 8601,
      "ulg": 8602,
      "ĠArticles": 8603,
      "ĠRece": 8604,
      "ĠNav": 8605,
      "Ġseparation": 8606,
      "Ġwindow": 8607,
      "Ġkilling": 8608,
      "Ġelev": 8609,
      "ĠBoy": 8610,
      "ĠCy": 8611,
      "ĠLine": 8612,
      "Ġcollege": 8613,
      "Ġsoft": 8614,
      "ĠMult": 8615,
      "Ġindicating": 8616,
      "ĠLar": 8617,
      "ĠSIGNIFICANT": 8618,
      "sed": 8619,
      "Ġimpacted": 8620,
      "rier": 8621,
      "Ġcopies": 8622,
      "MO": 8623,
      "Ġtypical": 8624,
      "Ġproven": 8625,
      "ĠLind": 8626,
      "Ġextract": 8627,
      "ĠPeter": 8628,
      "shore": 8629,
      "Ġteeth": 8630,
      "Ġdecreases": 8631,
      "ĠFROM": 8632,
      "achment": 8633,
      "bell": 8634,
      "Ġdistribute": 8635,
      "ĠColo": 8636,
      "Ġrebut": 8637,
      "ĠEXECUTIVE": 8638,
      "ĠTaxes": 8639,
      "Ġchem": 8640,
      "ĠPage": 8641,
      "Ġgovernments": 8642,
      "Ġtargeted": 8643,
      "Ġsort": 8644,
      "Ġresistance": 8645,
      "ĠGre": 8646,
      "po": 8647,
      "anes": 8648,
      "ĠPhys": 8649,
      "Ġduration": 8650,
      "Ġunrelated": 8651,
      "five": 8652,
      "laughter": 8653,
      "rome": 8654,
      "otyp": 8655,
      "such": 8656,
      "ĠLIBOR": 8657,
      "ĠAdd": 8658,
      "ano": 8659,
      "ĠRead": 8660,
      "Ġsector": 8661,
      "ĠDig": 8662,
      "affiliated": 8663,
      "Ġvig": 8664,
      "Ġnovel": 8665,
      "Ġassembly": 8666,
      "120": 8667,
      "Ġadministered": 8668,
      "ĠTor": 8669,
      "Ġ1963": 8670,
      "Ġmitigating": 8671,
      "Ġarguing": 8672,
      "ĠCast": 8673,
      "Ġdisposed": 8674,
      "Ġdistricts": 8675,
      "ĠDonald": 8676,
      "Ġwaters": 8677,
      "Ġbriefs": 8678,
      "Ġphilos": 8679,
      "1975": 8680,
      "Ġconvenience": 8681,
      "Ġchallenging": 8682,
      "Ġexactly": 8683,
      "Ġyourself": 8684,
      "Ġreaching": 8685,
      "Ġlimiting": 8686,
      "ĠMerc": 8687,
      "lah": 8688,
      "ĠAFF": 8689,
      "1981": 8690,
      "As": 8691,
      "ĠRobinson": 8692,
      "Ġassertion": 8693,
      "Ġintentional": 8694,
      "ĠPolicy": 8695,
      "Ġinput": 8696,
      "emy": 8697,
      "HC": 8698,
      "prof": 8699,
      "ĠTyp": 8700,
      "Ġsubstitute": 8701,
      "Ġsolic": 8702,
      "ORE": 8703,
      "iant": 8704,
      "Ġpossibly": 8705,
      "Ġperce": 8706,
      "Ġwelfare": 8707,
      "ĠInvestors": 8708,
      "alog": 8709,
      "ĠDenver": 8710,
      "Ġconsecutive": 8711,
      "Ġsurre": 8712,
      ".(": 8713,
      "ivities": 8714,
      "Ġaffects": 8715,
      "Ġobjections": 8716,
      "Ġsomewhat": 8717,
      "tes": 8718,
      "ĠIncluded": 8719,
      "Ġgather": 8720,
      "Ġmessage": 8721,
      "licable": 8722,
      "Ġcovers": 8723,
      "Ġrespondents": 8724,
      "ĠSUMM": 8725,
      "ement": 8726,
      "ails": 8727,
      "rad": 8728,
      "Ġsubscribers": 8729,
      "ĠSeveral": 8730,
      "Ġdental": 8731,
      "collectively": 8732,
      "Ġjointly": 8733,
      "bl": 8734,
      "isputed": 8735,
      "Ġ73": 8736,
      "she": 8737,
      "Ġatmosp": 8738,
      "Ġconventional": 8739,
      "Ġpostconviction": 8740,
      "1993": 8741,
      "Sec": 8742,
      "emiconductor": 8743,
      "ĠSM": 8744,
      "Ġrecognizes": 8745,
      "ĠPrincipal": 8746,
      "Ġunex": 8747,
      "Ġunknown": 8748,
      "ĠManufacturing": 8749,
      "aza": 8750,
      "employment": 8751,
      "ĠSett": 8752,
      "Ġpriority": 8753,
      "âĢĸ": 8754,
      "ĠINV": 8755,
      "Ġpertaining": 8756,
      "ĠEvery": 8757,
      "Ġtoxic": 8758,
      "isite": 8759,
      "Ġcredited": 8760,
      "Ġconcurrent": 8761,
      "Ġ1967": 8762,
      "ĠGal": 8763,
      "Ġenables": 8764,
      "Ġsynt": 8765,
      "rition": 8766,
      "Ġchronic": 8767,
      "Ġconvert": 8768,
      "Ġresponsibilities": 8769,
      "ĠIncre": 8770,
      "Ġtouch": 8771,
      "tery": 8772,
      "1997": 8773,
      "Ġ119": 8774,
      "TICE": 8775,
      "Ġsave": 8776,
      "ĠSk": 8777,
      "ICIES": 8778,
      "Ġfreedom": 8779,
      "ĠPOLICIES": 8780,
      "ĠSale": 8781,
      "ĠMorgan": 8782,
      "Ġsand": 8783,
      "Ġlock": 8784,
      "ĠFERC": 8785,
      "oo": 8786,
      "Ġaggravating": 8787,
      "Ġfashion": 8788,
      "Ġscr": 8789,
      "Ġoccupied": 8790,
      "ĠFoundation": 8791,
      "vate": 8792,
      "ror": 8793,
      "ĠRO": 8794,
      "bel": 8795,
      "Ġmistrial": 8796,
      "Minn": 8797,
      "practice": 8798,
      "Ġapproximates": 8799,
      "Ġtangible": 8800,
      "Ġdistributor": 8801,
      "Ġcollateralized": 8802,
      "ĠTrial": 8803,
      "Te": 8804,
      "Ġvaluable": 8805,
      "ĠOEM": 8806,
      "nex": 8807,
      "ifty": 8808,
      "isted": 8809,
      "Ġfurnish": 8810,
      "Ġdeploy": 8811,
      "ĠCS": 8812,
      "Ġpays": 8813,
      "ĠRoman": 8814,
      "ĠDefense": 8815,
      "iorari": 8816,
      "Ġcorpus": 8817,
      "Ġpsychiat": 8818,
      "110": 8819,
      "1996": 8820,
      "inity": 8821,
      "Ġvul": 8822,
      "ĠLittle": 8823,
      "Ġrecommendations": 8824,
      "Ġdrove": 8825,
      "Ġexcell": 8826,
      "Ġworker": 8827,
      "Ġsuccessor": 8828,
      "ĠSCHEDULES": 8829,
      "ĠBarn": 8830,
      "ĠPractice": 8831,
      "bu": 8832,
      "owners": 8833,
      "iox": 8834,
      "1995": 8835,
      "Ġmeetings": 8836,
      "Ġexport": 8837,
      "ĠFHL": 8838,
      "Ġconsiderable": 8839,
      "Ġexpensive": 8840,
      "Ġacre": 8841,
      "utures": 8842,
      "ĠAdams": 8843,
      "ĠWalker": 8844,
      "ĠJefferson": 8845,
      "author": 8846,
      "ĠBlue": 8847,
      "Ġallege": 8848,
      "cies": 8849,
      "ĠHighway": 8850,
      "Ġurban": 8851,
      "Ġalimony": 8852,
      "Ġstab": 8853,
      "Ġexclude": 8854,
      "ĠAuto": 8855,
      "ĠOffering": 8856,
      "ĠCHANGES": 8857,
      "haust": 8858,
      "Ġisn": 8859,
      "Ġfiduciary": 8860,
      "Ġcomplaints": 8861,
      "Ġswe": 8862,
      "Ġfinished": 8863,
      "ĠTRANSAC": 8864,
      "Ġcrucial": 8865,
      "Ġeasement": 8866,
      "Ġversus": 8867,
      "ologists": 8868,
      "Ġdrinking": 8869,
      "Ġintox": 8870,
      "Ġassemb": 8871,
      "Ġhearsay": 8872,
      "untary": 8873,
      "ĠRus": 8874,
      "UT": 8875,
      "Ġperiodically": 8876,
      "Ġtit": 8877,
      "Ġundisputed": 8878,
      "Ġoverhead": 8879,
      "capital": 8880,
      "Ġ180": 8881,
      "Ġdisputed": 8882,
      "estion": 8883,
      "Ġfifteen": 8884,
      "ĠRight": 8885,
      "ĠSer": 8886,
      "ĠER": 8887,
      "Ġstages": 8888,
      "Ġrecoverable": 8889,
      "ĠProb": 8890,
      "vol": 8891,
      "acco": 8892,
      "Ġconspir": 8893,
      "Ġappreciation": 8894,
      "Ġimproving": 8895,
      "lahoma": 8896,
      "Ġbills": 8897,
      "Ġinterim": 8898,
      "ĠHay": 8899,
      "ĠDrug": 8900,
      "ĠSteel": 8901,
      "Ġ----": 8902,
      "Ġsurve": 8903,
      "Ġcompeting": 8904,
      "ĠLow": 8905,
      "ĠBankruptcy": 8906,
      "Ġprohibition": 8907,
      "Ġseat": 8908,
      "gers": 8909,
      "Ġconfession": 8910,
      "Ġenactment": 8911,
      "Ġcommand": 8912,
      "Ġfinanced": 8913,
      "Ġcompliant": 8914,
      "oul": 8915,
      "ĠCur": 8916,
      "best": 8917,
      "Ġhedge": 8918,
      "ĠClub": 8919,
      "Ġrealize": 8920,
      "Ġiron": 8921,
      "1983": 8922,
      "body": 8923,
      "duces": 8924,
      "Ġpurported": 8925,
      "rows": 8926,
      "ĠWhy": 8927,
      "irt": 8928,
      "Ġstream": 8929,
      "Ġcontroversy": 8930,
      "ĠHoward": 8931,
      "Ġmilk": 8932,
      "Ġshif": 8933,
      "Ġindeed": 8934,
      "Ġcards": 8935,
      "viron": 8936,
      "ĠAngeles": 8937,
      "ĠPolice": 8938,
      "Ġstyle": 8939,
      "Ġconfirmed": 8940,
      "Ġretailers": 8941,
      "Ġmans": 8942,
      "ĠWithout": 8943,
      "Ġnursing": 8944,
      "ĠParty": 8945,
      "Ġpure": 8946,
      "ĠREC": 8947,
      "Ġcy": 8948,
      "Ġconsultants": 8949,
      "Ġspecifications": 8950,
      "Ġsports": 8951,
      "Ġinitiative": 8952,
      "Ġaddressing": 8953,
      "ĠBow": 8954,
      "olo": 8955,
      "Ġmistake": 8956,
      "Ġsalaries": 8957,
      "ĠLetter": 8958,
      "Ġdie": 8959,
      "ulatory": 8960,
      "Ġregulate": 8961,
      "Ġupper": 8962,
      "iche": 8963,
      "VER": 8964,
      "Ġformerly": 8965,
      "Ġfert": 8966,
      "Ġoriginated": 8967,
      "ds": 8968,
      "rection": 8969,
      "Ġvert": 8970,
      "Ġincorrect": 8971,
      "Ġeffectiveness": 8972,
      "ocuments": 8973,
      "1987": 8974,
      "Ġprinting": 8975,
      "ĠSing": 8976,
      "ĠOrd": 8977,
      "Ġstrengthe": 8978,
      "ĠOklahoma": 8979,
      "Ġinteresting": 8980,
      "Ġteach": 8981,
      "1985": 8982,
      "Ġreputation": 8983,
      "rif": 8984,
      "Ġnin": 8985,
      "ĠTRANSACTIONS": 8986,
      "Ġpal": 8987,
      "han": 8988,
      "gu": 8989,
      "Ġreality": 8990,
      "Ġsubcontract": 8991,
      "Ġwin": 8992,
      "Ġ107": 8993,
      "Ġevening": 8994,
      "ALL": 8995,
      "aneously": 8996,
      "ĠHolders": 8997,
      "Ġallowances": 8998,
      "rates": 8999,
      "Ġhappen": 9000,
      "Ġevaluated": 9001,
      "Ġpersonally": 9002,
      "Ġdefines": 9003,
      "Ġfounded": 9004,
      "Ġbirds": 9005,
      "1986": 9006,
      "ĠOFFICERS": 9007,
      "Ġcompensatory": 9008,
      "Ġking": 9009,
      "VA": 9010,
      "ĠComputer": 9011,
      "pons": 9012,
      "Ġflight": 9013,
      "ĠProm": 9014,
      "Ġprobability": 9015,
      "Ġcollision": 9016,
      "ĠHou": 9017,
      "Ġinflamm": 9018,
      "FORMATION": 9019,
      "Ġflexibility": 9020,
      "Ġhelped": 9021,
      "Ġ600": 9022,
      "Ġspend": 9023,
      "Ġtrademarks": 9024,
      "Ġsummarizes": 9025,
      "Ġjustified": 9026,
      "Ġload": 9027,
      "Ġcapability": 9028,
      "Ġrecyc": 9029,
      "Ġoxygen": 9030,
      "ĠBenefits": 9031,
      "Ġrich": 9032,
      "Ġbodily": 9033,
      "Ġtons": 9034,
      "ĠCN": 9035,
      "Ġdisorders": 9036,
      "ĠToday": 9037,
      "Ġcrude": 9038,
      "Ġprohibits": 9039,
      "Ġaffairs": 9040,
      "ĠGiven": 9041,
      "ĠBENEFI": 9042,
      "ĠLatin": 9043,
      "ĠBeneficial": 9044,
      "Ġcommodity": 9045,
      "ĠHousing": 9046,
      "kes": 9047,
      "Ġautomotive": 9048,
      "Ġdeciding": 9049,
      "Ġdilig": 9050,
      "Ġbottom": 9051,
      "ĠCE": 9052,
      "ĠDIRECTORS": 9053,
      "Ġproducers": 9054,
      "Ġwalk": 9055,
      "eterm": 9056,
      "ĠMag": 9057,
      "Ġconsequence": 9058,
      "Ġsubjects": 9059,
      "ĠNevertheless": 9060,
      "Ġoutput": 9061,
      "ĠSpring": 9062,
      "SU": 9063,
      "ĠWy": 9064,
      "Ġsued": 9065,
[...]
